#if defined __ICCARM__
#define __ALIGNED(x) __attribute__((aligned(x)))
#else
#define __ALIGNED(x) __attribute__((aligned(x)))
#endif
const unsigned char model1[] __ALIGNED(16) = {
0x4e,0x4e,0x43,0x55,0x01,0x00,0x01,0x00, 0x01,0x0e,0x07,0x00,0x07,0x00,0x00,0x00, // 16
0x02,0x00,0x00,0x00,0x00,0x00,0x00,0x00, 0x18,0x01,0x00,0x00,0x02,0x00,0x00,0x00, // 32
0xe0,0x01,0x00,0x00,0xc8,0x00,0x00,0x00, 0x18,0x01,0x00,0x00,0x00,0x00,0x00,0x00, // 48
0x00,0x00,0x00,0x00,0x00,0x00,0x00,0x00, 0x00,0x00,0x00,0x00,0x00,0x00,0x00,0x00, // 64
0x00,0x00,0x00,0x00,0x00,0x00,0x00,0x00, 0xff,0xff,0xff,0xff,0xff,0xff,0xff,0xff, // 80
0x43,0x4d,0x44,0x00,0x20,0x00,0x80,0x00, 0x50,0x00,0x00,0x00,0x00,0xfe,0x00,0x00, // 96
0x73,0x6d,0x61,0x72,0x74,0x63,0x61,0x72, 0x5f,0x61,0x64,0x5f,0x64,0x65,0x6e,0x73, // 112
0x65,0x5f,0x64,0x72,0x6f,0x70,0x5f,0x30, 0x32,0x35,0x5f,0x61,0x64,0x53,0x69,0x7a, // 128
0x65,0x5f,0x31,0x5f,0x6e,0x6f,0x62,0x6e, 0x2e,0x68,0x35,0x0d,0x0a,0x53,0x61,0x74, // 144
0x20,0x41,0x75,0x67,0x20,0x31,0x35,0x20, 0x32,0x31,0x3a,0x31,0x37,0x3a,0x35,0x36, // 160
0x20,0x32,0x30,0x32,0x30,0x0d,0x0a,0x31, 0x34,0x20,0x62,0x69,0x74,0x73,0x0d,0x0a, // 176
0x6e,0x6e,0x63,0x75,0x20,0x76,0x65,0x72, 0x20,0x30,0x2e,0x30,0x70,0x0d,0x0a,0x00, // 192
0x00,0x00,0x00,0x00,0x00,0x00,0x00,0x00, 0x00,0x00,0x00,0x00,0x00,0x00,0x00,0x00, // 208
0x43,0x4d,0x44,0x00,0x20,0x02,0x00,0x00, 0xd0,0x00,0x00,0x00,0x10,0x02,0x00,0x00, // 224
0x00,0x01,0x00,0x02,0x07,0x05,0x04,0x0a, 0x00,0x00,0x00,0x00,0x00,0x00,0x00,0x00, // 240
0x01,0x00,0x07,0x00,0x01,0x00,0x01,0x00, 0x8c,0x00,0x01,0x00,0x00,0x00,0x00,0x00, // 256
0x0c,0x00,0xff,0xff,0xff,0xff,0xff,0xff, 0x00,0x01,0x01,0x00,0x18,0x01,0x00,0x00, // 272
0x00,0x00,0x03,0x00,0x0e,0x00,0x00,0x00, 0x00,0x00,0x00,0x00,0x00,0x00,0x00,0x00, // 288
0x00,0x00,0x00,0x00,0x00,0x00,0x00,0x00, 0x00,0x00,0x00,0x00,0x00,0x00,0x00,0x00, // 304
0x00,0x00,0x00,0x00,0x00,0x00,0x00,0x00, 0x00,0x00,0x00,0x00,0x00,0x00,0x00,0x00, // 320
0x00,0x00,0x00,0x00,0x00,0x00,0x00,0x00, 0xa8,0x07,0x00,0x00,0x18,0x01,0x00,0x00, // 336
0xcc,0xff,0x16,0xfc,0xb5,0x00,0x7a,0x01, 0xe4,0xff,0xb5,0x01,0x27,0x00,0x2a,0x00, // 352
0x00,0x02,0x75,0x00,0xa0,0x05,0x47,0xff, 0x53,0xfb,0x45,0xff,0x7c,0x03,0x0b,0x00, // 368
0xb0,0x00,0x44,0xfd,0xb0,0xff,0xea,0x01, 0xad,0xff,0xfb,0xfc,0xdb,0xfd,0xa1,0xff, // 384
0xcd,0x01,0x85,0x00,0xbf,0xff,0xa9,0xff, 0x6d,0xff,0x3b,0xfd,0x9a,0xff,0xfe,0xfb, // 400
0x30,0x00,0xbb,0x03,0x8b,0xff,0xd1,0xfe, 0xa5,0xfb,0x97,0xff,0xe3,0xff,0xc1,0x00, // 416
0xfb,0xfe,0x06,0x00,0x10,0xff,0xfc,0xfb, 0x80,0x00,0xd9,0xff,0xe3,0xff,0x1a,0x03, // 432
0x85,0x00,0xfb,0xff,0x81,0x00,0x65,0xff, 0xe4,0xff,0xca,0xff,0x5c,0x13,0xf1,0xff, // 448
0x5d,0x02,0x03,0x01,0x42,0xff,0x20,0xfc, 0x6c,0x00,0x6d,0x00,0x93,0xff,0xe3,0xfe, // 464
0xeb,0xff,0x19,0x00,0x3e,0xfc,0x8c,0x00, 0x5d,0x03,0xc1,0xff,0x90,0x00,0xb8,0x03, // 480
0x42,0x00,0x84,0x01,0x77,0x00,0x09,0xfe, 0xb4,0x00,0xd5,0x03,0x38,0x02,0xcd,0x00, // 496
0x97,0x03,0x77,0xff,0x7c,0x02,0x98,0xff, 0xe4,0xff,0xc4,0xff,0xdc,0xff,0x2a,0xfd, // 512
0x8d,0x00,0x2c,0xf2,0xae,0x00,0x43,0xff, 0x57,0xff,0x54,0x00,0x04,0x04,0x8d,0xff, // 528
0xe2,0x03,0x86,0x00,0x61,0xff,0x8e,0xfd, 0x81,0xff,0xb4,0x01,0xa1,0xff,0x67,0x07, // 544
0xa5,0xff,0xed,0xff,0x81,0xff,0x28,0x00, 0x72,0x00,0xb0,0x00,0x59,0xea,0x32,0x00, // 560
0x6c,0xff,0x9a,0xff,0x5c,0xff,0x29,0xfc, 0x40,0xff,0x7d,0xfd,0x90,0x00,0x77,0x00, // 576
0x72,0x01,0xad,0xff,0x2b,0x05,0x02,0x00, 0x02,0xfc,0x19,0x00,0x42,0x02,0xf5,0x00, // 592
0x15,0x00,0x07,0xfc,0x31,0x00,0x68,0x01, 0xf8,0xff,0xc7,0x00,0x8d,0x00,0xe7,0xff, // 608
0xbb,0x03,0x81,0x00,0x36,0x03,0x40,0xff, 0x09,0x04,0xe3,0x01,0x75,0xff,0xb9,0xff, // 624
0x82,0xff,0xa6,0x01,0x42,0xff,0x7c,0xff, 0xb2,0xfe,0x74,0xff,0x60,0x06,0x84,0xff, // 640
0xe5,0xfd,0x92,0xff,0xd2,0xff,0xbe,0xff, 0x3d,0xff,0x85,0x07,0xa6,0x00,0x37,0x05, // 656
0x50,0x00,0x7f,0xfe,0xe1,0xfc,0xa9,0xff, 0xf1,0x01,0xc1,0x00,0xa5,0xfd,0x4b,0xff, // 672
0xfa,0x00,0xd0,0x03,0x78,0xff,0xd0,0xff, 0x5f,0xff,0xd6,0xfe,0x96,0x00,0x8c,0xff, // 688
0x31,0x00,0x0e,0x00,0x85,0xfd,0xdc,0xff, 0x0e,0xf0,0xc2,0xff,0xbe,0xff,0x3f,0x01, // 704
0x95,0xff,0xd9,0xfc,0xd5,0xff,0x37,0xf6, 0x61,0xff,0x62,0xfe,0xe7,0xff,0x8c,0x00, // 720
0x4e,0x05,0x95,0xff,0x4c,0xfe,0xb3,0xff, 0xb0,0xfd,0xb9,0xfe,0x80,0x00,0x9d,0x03, // 736
0xcc,0x00,0xfe,0xff,0x37,0xff,0x26,0xfe, 0x8a,0xfe,0x3f,0x00,0x40,0x04,0x66,0x00, // 752
0x45,0x01,0x35,0xff,0xf7,0x00,0xba,0x01, 0x4b,0x00,0x13,0x04,0x7c,0x00,0x9a,0x01, // 768
0xbf,0xff,0x66,0xfe,0xa3,0xfd,0x1c,0x00, 0xbb,0xfe,0xcc,0xff,0x37,0x05,0x96,0xff, // 784
0xea,0xff,0x08,0xfe,0xbd,0x00,0x10,0x02, 0xb1,0x00,0x28,0xf9,0x0e,0x00,0x9b,0xff, // 800
0x5f,0x01,0x56,0x00,0xd2,0xf9,0x52,0x00, 0xcd,0xfe,0x92,0xff,0x31,0x00,0x00,0x00, // 816
0x70,0xff,0x7f,0xf8,0x4d,0xff,0xba,0x04, 0xac,0xff,0xf0,0xff,0x4f,0x01,0xf0,0xff, // 832
0x53,0x06,0x66,0x00,0x8c,0xfa,0x5b,0x00, 0xc8,0xff,0x77,0xff,0x60,0x00,0xb5,0x07, // 848
0xb5,0xff,0x6c,0xfa,0x3c,0xff,0xdc,0xfe, 0xe2,0xfb,0x4b,0xff,0x0a,0x01,0x61,0xff, // 864
0x73,0x00,0x37,0x00,0x5d,0x00,0xbc,0x00, 0x88,0x00,0xfb,0xf7,0xe1,0xff,0x97,0x04, // 880
0x6a,0x00,0xcb,0xff,0x37,0xff,0x3f,0xff, 0xd1,0x03,0x4c,0xff,0xad,0x05,0x53,0xff, // 896
0x67,0xff,0x61,0xfe,0x41,0x00,0xa4,0x03, 0xbb,0xff,0x37,0x06,0x31,0x00,0x32,0x00, // 912
0x72,0x00,0x8d,0x00,0xd0,0xfe,0xbc,0x00, 0x46,0x12,0x31,0x00,0x09,0xfe,0xb5,0xff, // 928
0x01,0x00,0xdc,0x04,0x17,0x00,0xbe,0xff, 0x5d,0x00,0x28,0x00,0xb2,0x00,0xa8,0x00, // 944
0xc2,0xff,0x56,0x00,0xf6,0x16,0xe8,0xff, 0xc8,0xff,0x32,0x03,0x39,0x00,0x5a,0xff, // 960
0x78,0x00,0x57,0xfd,0x5f,0xff,0xb7,0x01, 0xcf,0x02,0xd6,0xff,0x71,0x01,0x42,0xff, // 976
0x7b,0x02,0xb8,0x00,0x1c,0x00,0x4f,0xfc, 0x79,0x00,0x52,0xfe,0xb6,0x00,0x54,0x00, // 992
0xb0,0x00,0x3f,0x00,0x08,0x02,0x6c,0x00, 0x7b,0xfe,0xa6,0xff,0x03,0x05,0x62,0xff, // 1008
0x35,0xfe,0x57,0xfe,0x10,0x00,0x70,0xfc, 0x8d,0xff,0x1d,0xfc,0x50,0xff,0x42,0x00, // 1024
0x47,0x00,0xcb,0xff,0x7f,0xfc,0xc3,0xff, 0x6d,0x01,0x1a,0x00,0xd8,0xfb,0xbc,0xff, // 1040
0x80,0x00,0x9c,0xfe,0x92,0x00,0xfa,0xfb, 0xfe,0xff,0x29,0x02,0xfe,0x01,0xc8,0x00, // 1056
0x36,0xfc,0x80,0x00,0x06,0x01,0x88,0x00, 0xdb,0x00,0x14,0x04,0x4f,0xff,0xac,0xff, // 1072
0x70,0x00,0x9d,0xfe,0x4e,0xff,0xea,0xff, 0x4e,0xff,0x94,0xff,0xc6,0x04,0x5a,0x00, // 1088
0xe3,0x06,0x60,0x00,0x98,0x00,0xd2,0x01, 0x81,0xff,0xbc,0xfb,0xf1,0xff,0x75,0xfc, // 1104
0x57,0x00,0xb2,0x01,0xc4,0xfe,0x35,0x00, 0x0f,0x05,0x33,0xff,0x41,0x02,0xcb,0x00, // 1120
0xe8,0xff,0xeb,0xff,0xce,0x00,0xdd,0x07, 0xca,0x00,0x33,0xfb,0x9e,0xff,0xeb,0x03, // 1136
0x45,0x02,0x06,0x00,0xa9,0x02,0x3d,0xff, 0x61,0x01,0x46,0x00,0x40,0xfd,0x32,0xfe, // 1152
0x21,0x00,0xd4,0x01,0xb0,0xff,0xd4,0xfe, 0x8c,0xff,0x15,0x02,0xc5,0x01,0x58,0xff, // 1168
0xf4,0xfb,0xb1,0x00,0xbf,0xfe,0x75,0x00, 0x8f,0xff,0x7f,0x00,0x70,0xff,0xf4,0xf8, // 1184
0x81,0x00,0xff,0x01,0xf2,0xff,0x1d,0xff, 0x2a,0xfd,0xa1,0x00,0x7e,0xfc,0xa0,0xff, // 1200
0x6d,0x00,0x03,0x00,0xf4,0xff,0x5c,0x01, 0x42,0xff,0x94,0x05,0xaf,0x00,0xba,0xfa, // 1216
0x43,0xff,0xe1,0xfe,0x41,0xfe,0x09,0x00, 0x59,0xfc,0xaa,0xff,0xaf,0xfe,0x27,0x00, // 1232
0xac,0x02,0x46,0x01,0xb1,0xff,0x7d,0x02, 0xa4,0x00,0x98,0x04,0x78,0xff,0x5f,0x00, // 1248
0x0d,0x01,0xa4,0xff,0x3c,0xf8,0xb5,0x00, 0x1c,0x04,0xc8,0xff,0xf1,0x01,0xbf,0xff, // 1264
0xc2,0x00,0xd8,0x04,0x15,0x00,0x33,0x04, 0x3e,0x00,0xdf,0x02,0x29,0x02,0xf0,0xff, // 1280
0xd0,0x03,0x41,0xff,0xc9,0x00,0xdb,0xff, 0x61,0x00,0x1e,0xff,0x4c,0x00,0x3e,0xf9, // 1296
0x41,0x00,0x37,0x01,0xfc,0xff,0x30,0x00, 0x90,0x00,0x52,0x00,0xd2,0xf7,0x2f,0x00, // 1312
0x90,0x04,0x7b,0x00,0x0b,0x00,0x52,0x01, 0x64,0x00,0x5c,0x06,0x77,0x00,0x37,0xfa, // 1328
0x2f,0x00,0xa1,0xfe,0xbd,0xfc,0x2f,0x00, 0x0a,0xfd,0xdc,0xff,0x32,0x01,0xa3,0x00, // 1344
0xc0,0xfe,0xdc,0xfd,0x33,0x00,0x8a,0xfb, 0x4d,0x00,0xb0,0xfe,0x8c,0xff,0x44,0x01, // 1360
0x25,0x01,0xe1,0xff,0xca,0xfc,0x95,0xff, 0x80,0xfe,0x75,0x00,0x8d,0xff,0x03,0xff, // 1376
0x01,0x00,0x4e,0xff,0x88,0x00,0x0d,0xed, 0x65,0x00,0xd8,0xff,0x7b,0xff,0xfe,0xff, // 1392
0x8c,0x04,0xd6,0xff,0x6d,0x04,0xb6,0xff, 0x5d,0x01,0xb8,0x03,0x9b,0x00,0x19,0x03, // 1408
0x40,0x00,0x7e,0xfe,0x48,0x00,0xd3,0x00, 0x23,0x01,0x73,0x00,0x5c,0x03,0x01,0x00, // 1424
0x55,0xfd,0x53,0xff,0x56,0x00,0xf3,0xff, 0x8e,0xff,0xc5,0xfb,0xc2,0xff,0x9e,0xfc, // 1440
0x37,0x00,0x39,0xfe,0x1a,0xff,0xef,0xff, 0x57,0xfc,0x5e,0x00,0x25,0xff,0x68,0x00, // 1456
0x91,0x01,0x6a,0xfd,0x87,0x00,0x60,0xff, 0xeb,0xff,0xd8,0x01,0xee,0xff,0x84,0xff, // 1472
0x7c,0x00,0x9f,0xff,0xd0,0xfb,0xb7,0xff, 0x5c,0xf9,0x82,0xff,0x20,0x00,0x5e,0xfe, // 1488
0xf4,0xff,0x45,0x04,0x41,0xff,0x6e,0x05, 0x83,0xff,0x93,0x01,0x0b,0x04,0x28,0x00, // 1504
0x8b,0xff,0xc0,0x00,0x3b,0x00,0x5b,0x00, 0x4f,0x00,0xfa,0x00,0xd4,0xff,0x90,0xf8, // 1520
0xb1,0x00,0x35,0x04,0xe2,0xff,0x0a,0x00, 0x57,0x00,0x9e,0xff,0x27,0xfc,0xe2,0xff, // 1536
0xe0,0xfa,0x0a,0x00,0x97,0x01,0x42,0x01, 0x00,0x00,0xf7,0xfb,0x12,0x00,0xeb,0xfd, // 1552
0x9a,0xff,0x53,0x00,0x41,0xff,0x73,0x00, 0xb1,0x02,0x74,0xff,0xf3,0x0d,0x57,0x00, // 1568
0xc1,0xff,0x1a,0xfe,0x48,0xff,0x3f,0x02, 0xeb,0xff,0x68,0x08,0x00,0x00,0x07,0x00, // 1584
0x13,0x00,0xb6,0xff,0xc3,0x06,0x73,0x00, 0xba,0x0a,0x0f,0x00,0xc3,0xfe,0x5e,0xfe, // 1600
0x70,0x00,0x26,0xfc,0xc7,0xff,0xbf,0xfc, 0xc4,0xff,0xe8,0xfd,0x64,0xfe,0x97,0x00, // 1616
0x49,0x04,0xdd,0xff,0xa8,0xff,0x3a,0x00, 0x39,0xfc,0x8a,0xfd,0xb9,0xff,0x0d,0xff, // 1632
0xdb,0xff,0xf6,0xff,0xb7,0x00,0x52,0x00, 0xb6,0xff,0xbf,0xff,0x6c,0x03,0x4c,0xff, // 1648
0x3f,0x09,0xc3,0x00,0x08,0x00,0x07,0x00, 0x97,0xff,0x3b,0xf8,0x37,0x00,0xbe,0x04, // 1664
0xb1,0xff,0xd9,0xff,0x0a,0x01,0x8b,0x00, 0xd2,0x05,0xa4,0xff,0x0a,0xfb,0x84,0xff, // 1680
0x0e,0x00,0x13,0x00,0x48,0x00,0xf4,0xf8, 0x66,0xff,0x87,0xf6,0x20,0x00,0x1b,0x00, // 1696
0xd4,0xff,0x46,0x00,0xc7,0xf8,0xc0,0x00, 0xba,0x05,0x81,0xff,0xe0,0xff,0x27,0xff, // 1712
0x6a,0x00,0x86,0x00,0x70,0xff,0x9c,0xe9, 0x38,0x00,0xd9,0x00,0x81,0x01,0x0b,0x00, // 1728
0x2d,0xfc,0x08,0x00,0xa0,0xf9,0xdf,0xff, 0x21,0x00,0x48,0xfe,0xfb,0xff,0x9a,0x04, // 1744
0xb7,0x00,0xdc,0x05,0x92,0xff,0xc8,0x00, 0xd0,0xff,0xec,0xff,0xc2,0xf9,0xac,0xff, // 1760
0x86,0x00,0xaa,0x00,0x67,0x00,0xd8,0x01, 0x5d,0x00,0x8c,0xf9,0xc2,0xff,0xff,0x03, // 1776
0x1e,0x00,0xbf,0xff,0xcf,0xfe,0x35,0x00, 0x64,0x00,0x76,0x00,0xd4,0xe8,0x36,0x00, // 1792
0x32,0x00,0xbe,0xfe,0x76,0xff,0xd5,0x05, 0xb7,0x00,0x68,0x01,0xea,0xff,0x2b,0x04, // 1808
0xa9,0x00,0x37,0x00,0x00,0x01,0x60,0xff, 0xff,0x03,0x37,0xff,0x88,0xfc,0xf0,0xfd, // 1824
0x57,0xff,0xfd,0xfc,0x03,0x00,0xd5,0xfc, 0xc5,0x00,0x11,0x00,0x43,0x00,0x0f,0x00, // 1840
0xaf,0xf8,0xef,0xff,0xbc,0xfb,0x9d,0x00, 0x39,0x01,0x28,0xfd,0xaf,0x00,0x8b,0xfe, // 1856
0x23,0x00,0xed,0x01,0x8c,0x00,0x80,0x00, 0x6e,0x00,0x56,0xff,0xa5,0xfb,0x46,0x00, // 1872
0x50,0xfb,0xb2,0x00,0xba,0xff,0x5d,0x01, 0xd4,0xff,0xec,0xfa,0x54,0xff,0xe0,0xfa, // 1888
0x0f,0x00,0xb9,0xff,0x86,0xff,0x9c,0x00, 0x68,0xfc,0xa0,0xff,0xf0,0xfd,0xef,0xff, // 1904
0x13,0x00,0x37,0x00,0x61,0xff,0x23,0x07, 0xc6,0xff,0xd1,0x09,0x46,0x00,0xca,0xfd, // 1920
0x63,0xfe,0x5a,0xff,0x27,0x04,0x2c,0x00, 0x53,0xff,0x33,0xff,0x2d,0x00,0x88,0xfd, // 1936
0xeb,0xff,0x83,0x00,0xac,0xff,0x35,0x08, 0x41,0xff,0x06,0x02,0x8b,0x01,0x73,0xff, // 1952
0xac,0xfb,0x3a,0xff,0xd8,0xff,0xd4,0xff, 0x03,0x01,0x2f,0x01,0x32,0xff,0xad,0x03, // 1968
0x34,0xff,0x65,0x02,0x38,0x00,0xb4,0xff, 0xf6,0xfe,0x9d,0x00,0xf0,0x00,0xdb,0xff, // 1984
0x3a,0xe9,0x14,0x00,0xbf,0xfe,0x76,0xff, 0xb7,0x00,0x56,0x05,0xca,0x00,0x29,0x00, // 2000
0x31,0x00,0x9a,0x00,0x2f,0xff,0xa0,0xff, 0xb9,0x04,0xdd,0xff,0x59,0x04,0x8d,0x00, // 2016
0xfe,0xff,0xe9,0xff,0x65,0xff,0x06,0x08, 0x43,0xff,0xc9,0xfa,0xce,0xff,0x63,0xfe, // 2032
0x8c,0xfc,0x7d,0x00,0x4a,0xff,0xd6,0xff, 0x8e,0xff,0x91,0xff,0x37,0x02,0x69,0x01, // 2048
0x96,0xff,0x70,0xfc,0x5c,0x00,0x08,0x00, 0x8a,0xff,0xdd,0xff,0x01,0x00,0x67,0xff, // 2064
0x7c,0x07,0x60,0x00,0x04,0xfb,0x6d,0x00, 0xf9,0xff,0xe4,0xff,0x51,0x00,0x35,0x07, // 2080
0xea,0xff,0x02,0xfb,0xfb,0xff,0x53,0x01, 0x3b,0x04,0xfe,0xff,0x1b,0x00,0xa4,0xff, // 2096
0x8c,0x01,0x3a,0x00,0xf9,0xff,0x8f,0xff, 0x4d,0xff,0x4b,0x00,0x5d,0x00,0x65,0xea, // 2112
0x13,0x00,0x72,0x00,0xf7,0x00,0x96,0xff, 0x80,0xf8,0xf8,0xff,0x2e,0x05,0x18,0x00, // 2128
0x11,0xfe,0x0c,0xfe,0x78,0x00,0x2a,0x03, 0xff,0xff,0xec,0x02,0x80,0x00,0x48,0xfd, // 2144
0xf2,0xfd,0x97,0x00,0x3c,0x03,0x6d,0x00, 0x73,0x00,0x0d,0x00,0x11,0x00,0x40,0xff, // 2160
0x8f,0x00,0x71,0xf9,0xbc,0x00,0x2b,0x02, 0x5d,0xff,0x13,0x03,0x95,0x01,0x25,0x00, // 2176
0x88,0xff,0x45,0xff,0xed,0x03,0x08,0x00, 0x18,0x03,0x33,0xfe,0x9d,0xff,0xdc,0x00, // 2192
0x41,0xff,0x50,0x02,0xce,0x00,0xaa,0xfc, 0x04,0xff,0x98,0x00,0x13,0xfe,0x7f,0xff, // 2208
0xce,0xfc,0x96,0x00,0xf4,0xff,0xaa,0x00, 0x15,0x00,0xf6,0x06,0xfc,0xff,0xd9,0xfa, // 2224
0xb9,0xff,0xdb,0xff,0xe5,0x02,0x66,0xff, 0xa0,0xfb,0x8d,0xff,0x83,0xfd,0x8f,0xff, // 2240
0xcf,0xff,0x1e,0xff,0xef,0xff,0x9b,0x00, 0x49,0x00,0x97,0xe8,0xa4,0xff,0x37,0x00, // 2256
0x23,0x00,0xd5,0xff,0x6c,0xf8,0x96,0xff, 0xfc,0x03,0x36,0xff,0xe0,0xff,0x76,0x00, // 2272
0xa8,0x00,0xe1,0x05,0x23,0x00,0xaa,0xf9, 0x18,0x00,0x04,0xfe,0xac,0xfd,0xb8,0xff, // 2288
0x22,0xfc,0x4e,0xff,0x8f,0xfd,0x9b,0x00, 0x47,0xea,0x03,0x06,0xca,0x12,0xd3,0xe1, // 2304
0x54,0xf6,0x53,0xe6,0x21,0xeb,0xf0,0xfe, 0x33,0x1a,0x86,0x07,0x2e,0x13,0x33,0x0e, // 2320
0x29,0x0b,0x49,0xe9,0x93,0xe7,0x3f,0x00, 0xb2,0x0e,0x3d,0x02,0x31,0x17,0xc0,0xf3, // 2336
0x79,0x1a,0x42,0xee,0x7c,0xf3,0x94,0xe5, 0xcf,0x19,0x26,0x0e,0x19,0x13,0x48,0xee, // 2352
0x10,0xe1,0x6e,0xe3,0x73,0xfb,0xea,0xee, 0x31,0xed,0xa7,0x11,0x8e,0x04,0x73,0x01, // 2368
0xe8,0xf4,0x83,0xe6,0xed,0x0b,0xc4,0xe8, 0xa5,0xe7,0x6e,0x02,0x75,0xeb,0x7a,0x02, // 2384
0x2d,0x16,0x04,0x0f,0x53,0xf1,0xde,0x13, 0x00,0x04,0xad,0x12,0x16,0xf6,0x9f,0x1d, // 2400
0x88,0x18,0x38,0xed,0x8e,0x18,0x6c,0xf3, 0x1a,0xfb,0xd0,0x12,0xbf,0xe5,0x4f,0x1e, // 2416
0xc9,0x0e,0x85,0xf6,0x63,0x00,0x3d,0x04, 0x0f,0x03,0xd7,0x0f,0x18,0xf6,0x05,0x06, // 2432
0x91,0x0b,0xc0,0x0d,0xc3,0xff,0x80,0xf7, 0x73,0x00,0xba,0x16,0x97,0xfe,0x1c,0xeb, // 2448
0xc0,0x10,0x9f,0xf9,0xcf,0x10,0x02,0x01, 0x9d,0xf9,0x0e,0x10,0x5c,0xe8,0xef,0x18, // 2464
0x67,0x0f,0x5b,0x13,0xab,0x18,0xa2,0xef, 0xff,0xeb,0x6f,0xf5,0xc0,0x05,0xb6,0xe1, // 2480
0xaa,0xe6,0xae,0xec,0x7a,0x04,0xf5,0xfe, 0x09,0x0b,0x53,0x08,0xc1,0xfd,0xef,0x18, // 2496
0x36,0xea,0x61,0x0f,0xb7,0x10,0xb7,0xfc, 0xbc,0xed,0xd3,0x0f,0x3e,0xf5,0xbf,0x0c, // 2512
0x84,0xf7,0x8c,0x13,0x50,0x17,0xd5,0x0c, 0xb9,0xf6,0x69,0xe5,0x3d,0xec,0x41,0x1c, // 2528
0xfa,0xf7,0x1b,0xfc,0x73,0xea,0x46,0xee, 0x69,0xfa,0x5d,0xe6,0x56,0x1c,0x7c,0xfb, // 2544
0xf6,0xfa,0x3b,0x19,0xb2,0x00,0x3d,0x0f, 0xfe,0xe2,0x90,0xe1,0x1d,0x0b,0x98,0x12, // 2560
0xb3,0xfb,0x70,0xf9,0x77,0xfc,0x0b,0x19, 0xc6,0xfc,0xc8,0x04,0x55,0xfe,0xa3,0xfd, // 2576
0x43,0x4d,0x44,0x00,0x20,0x03,0x80,0x00, 0x10,0x0a,0x00,0x00,0x10,0x0a,0x00,0x00, // 2592
0x01,0x01,0x00,0x02,0x0c,0x00,0x00,0x00, 0x00,0x00,0x00,0x00,0x00,0x00,0x00,0x00, // 2608
0x01,0x00,0x8c,0x00,0x01,0x00,0x01,0x00, 0x8c,0x00,0x01,0x00,0x00,0x00,0x00,0x00, // 2624
0x0d,0x00,0xff,0xff,0xff,0xff,0xff,0xff, 0x00,0x00,0x00,0x00,0x00,0x00,0x00,0x00, // 2640
0x00,0x00,0x00,0x00,0x00,0x00,0x00,0x00, 0x00,0x00,0x00,0x00,0x00,0x00,0x00,0x00, // 2656
0x00,0x00,0x00,0x00,0x00,0x00,0x00,0x00, 0x00,0x00,0x00,0x00,0x00,0x00,0x00,0x00, // 2672
0x00,0x00,0x00,0x00,0x00,0x00,0x00,0x00, 0x00,0x00,0x00,0x00,0x00,0x00,0x00,0x00, // 2688
0x00,0x00,0x00,0x00,0x00,0x00,0x00,0x00, 0x00,0x00,0x00,0x00,0x00,0x00,0x00,0x00, // 2704
0x43,0x4d,0x44,0x00,0x20,0x05,0x00,0x00, 0x90,0x0a,0x00,0x00,0x10,0x02,0x00,0x00, // 2720
0x01,0x00,0x00,0x02,0x0d,0x0b,0x0c,0x0a, 0x00,0x00,0x00,0x00,0x00,0x00,0x00,0x00, // 2736
0x01,0x00,0x8c,0x00,0x01,0x00,0x01,0x00, 0x64,0x00,0x01,0x00,0x00,0x00,0x00,0x00, // 2752
0x0c,0x00,0xff,0xff,0xff,0xff,0xff,0xff, 0x00,0x00,0x01,0x00,0xc8,0x00,0x00,0x00, // 2768
0x00,0x01,0x02,0x00,0x18,0x01,0x00,0x00, 0x00,0x00,0x00,0x00,0x00,0x00,0x00,0x00, // 2784
0x00,0x00,0x00,0x00,0x00,0x00,0x00,0x00, 0x00,0x00,0x00,0x00,0x00,0x00,0x00,0x00, // 2800
0x00,0x00,0x00,0x00,0x00,0x00,0x00,0x00, 0x00,0x00,0x00,0x00,0x00,0x00,0x00,0x00, // 2816
0x00,0x00,0x00,0x00,0x00,0x00,0x00,0x00, 0x60,0x6d,0x00,0x00,0xc8,0x00,0x00,0x00, // 2832
0xb8,0xfe,0xb7,0x04,0x9b,0x02,0x6f,0xf8, 0x7c,0xf9,0x43,0xfd,0x9c,0xfb,0xc3,0xfe, // 2848
0xaa,0x02,0x55,0x00,0x6e,0x04,0x4b,0x01, 0xdc,0x02,0xe3,0xfd,0x45,0xf4,0x58,0x00, // 2864
0x5a,0x00,0x9d,0x03,0x34,0x02,0xe7,0xff, 0x2a,0x03,0xd0,0x01,0xd5,0xff,0x2e,0xfd, // 2880
0xf2,0x04,0xd0,0x05,0x62,0x03,0xc6,0xfe, 0x5b,0xfb,0x0a,0xfb,0x4f,0x01,0x74,0xf8, // 2896
0xc3,0x00,0x38,0x00,0x3a,0x00,0x2b,0x03, 0x29,0x02,0xe3,0xfc,0xb6,0x00,0x7e,0xfd, // 2912
0x07,0xfa,0x57,0xff,0xd0,0xfe,0x14,0xff, 0x5f,0x03,0xa3,0x01,0x4f,0xfe,0x08,0x01, // 2928
0x74,0x00,0x8d,0x01,0x83,0xff,0x3b,0x04, 0x28,0x04,0x70,0xfe,0xdc,0x03,0x8a,0xff, // 2944
0x34,0x02,0x0e,0x03,0x3f,0xf9,0xe9,0x05, 0xc9,0xfd,0x87,0xfc,0x14,0x03,0x59,0xff, // 2960
0xd7,0x00,0xe2,0xfe,0x2b,0x00,0x8b,0x03, 0x76,0xff,0x1f,0xfe,0x56,0x02,0x90,0xfc, // 2976
0xeb,0xfe,0xc5,0x02,0xad,0x01,0x1b,0xff, 0xe4,0x03,0x9f,0x01,0x92,0x01,0xab,0xfe, // 2992
0x70,0xfe,0x6e,0x00,0x44,0xfd,0x92,0x03, 0x28,0xff,0x06,0x02,0x47,0x03,0x23,0xf9, // 3008
0x00,0xfa,0xe4,0xff,0x85,0xff,0xe3,0xfb, 0x64,0xfb,0x9e,0xfd,0x70,0xfe,0x38,0x02, // 3024
0x2f,0xff,0xc2,0xfd,0xfb,0xff,0x9e,0x06, 0xf7,0xfc,0x94,0xff,0x0b,0x01,0x74,0x00, // 3040
0x69,0x00,0x7d,0x01,0x78,0xfe,0x54,0x00, 0xcf,0xfe,0x45,0x03,0x53,0x02,0x7e,0xff, // 3056
0x94,0xff,0x80,0xf9,0x11,0xfb,0xe4,0x05, 0xc0,0xff,0xb7,0xff,0x29,0xff,0xc9,0xfd, // 3072
0x8d,0x00,0x47,0xfa,0x24,0x04,0x93,0x01, 0xa4,0x01,0x94,0x03,0xf4,0xff,0x07,0xff, // 3088
0x13,0xf7,0x80,0xf8,0xaf,0xfd,0xd4,0x01, 0x3b,0x00,0x57,0xfe,0xf4,0x02,0x6e,0x01, // 3104
0x98,0x01,0xc4,0xfe,0xa6,0x02,0xa7,0xfe, 0x9b,0xfe,0xcb,0xfb,0xa9,0xff,0x6a,0xff, // 3120
0x98,0x01,0x03,0xff,0xef,0xfe,0xb6,0xfe, 0x74,0x03,0xcd,0x00,0x94,0x00,0x78,0xfd, // 3136
0x1d,0x02,0x05,0xfb,0x1f,0xfe,0x68,0xff, 0xa3,0x00,0x2a,0xfe,0x6b,0x02,0x86,0xff, // 3152
0xdf,0xfe,0xda,0xf8,0x4b,0xff,0xc9,0xfc, 0x6d,0x01,0xda,0x00,0xa3,0x03,0xa6,0xfb, // 3168
0xa0,0xfd,0x9e,0xfb,0x7a,0xfe,0x99,0xff, 0x9c,0xff,0x6f,0x07,0x4f,0x00,0xc5,0xfc, // 3184
0xcb,0xfe,0x62,0xfe,0x6c,0x01,0x26,0xfa, 0x49,0xfb,0x79,0xff,0x35,0xfd,0x61,0xff, // 3200
0x41,0x00,0xc0,0xff,0xc7,0x00,0xc5,0x00, 0xb7,0x00,0x05,0x01,0xb5,0x00,0x1d,0x03, // 3216
0xd2,0x01,0xa4,0xf8,0x06,0x07,0x5d,0xf9, 0x36,0xff,0x2d,0xff,0x8a,0xff,0x5c,0x02, // 3232
0x34,0x06,0xa2,0x01,0x2a,0xfd,0x61,0x01, 0x34,0xfe,0xab,0x01,0x51,0xfc,0x58,0xfd, // 3248
0xc7,0x06,0x11,0x02,0x0a,0xfe,0x78,0x01, 0xf6,0x00,0xe4,0x02,0xa9,0x01,0x60,0xfb, // 3264
0xda,0xff,0x76,0xff,0x80,0x02,0xf0,0x01, 0x87,0x01,0x32,0x06,0x1d,0xf6,0x50,0x00, // 3280
0xde,0x02,0x4f,0x06,0x71,0x03,0x86,0xfe, 0x11,0xfd,0x1f,0x00,0xa9,0x00,0xe7,0xfc, // 3296
0x87,0x01,0x68,0xfc,0xad,0x01,0x03,0xfe, 0x27,0x00,0x61,0x03,0x17,0x00,0xcf,0x05, // 3312
0xf9,0xf6,0x7a,0x08,0x0a,0x02,0x35,0x00, 0x72,0xf7,0x80,0xff,0xd4,0x01,0x41,0x01, // 3328
0x10,0x00,0xd7,0x04,0x7d,0x0a,0x7d,0xff, 0x9f,0xff,0xc4,0xfc,0x80,0xff,0xb0,0x03, // 3344
0xdc,0xfe,0xa8,0x00,0xd1,0xfa,0x05,0xf7, 0x83,0xff,0xf7,0xff,0x99,0x03,0xd7,0xff, // 3360
0x0b,0xff,0x95,0x01,0x38,0x00,0xe7,0xff, 0xe5,0xfc,0x1f,0xff,0x6d,0x08,0x62,0x00, // 3376
0xef,0xfe,0x79,0x01,0x45,0xfd,0x79,0x04, 0x7e,0x00,0x84,0x00,0x3f,0xfe,0xd3,0x01, // 3392
0x9b,0xfd,0x8c,0x01,0x94,0xf3,0x33,0x10, 0xd2,0xfe,0x6a,0x00,0xbe,0xfe,0xdf,0x01, // 3408
0xfe,0xfa,0xbd,0x03,0x16,0x01,0x98,0xfa, 0xe7,0xfe,0x82,0xff,0x79,0x01,0xae,0xfe, // 3424
0x47,0x01,0xe3,0xfe,0x0c,0xfa,0x7d,0xfe, 0xbb,0xf1,0x79,0xfd,0xda,0xfe,0xc4,0x02, // 3440
0xc7,0xff,0x85,0xff,0xe9,0xff,0x57,0x06, 0x42,0x09,0xa5,0x02,0x1a,0x00,0xb0,0x02, // 3456
0x27,0xfe,0xc0,0x02,0xdd,0xff,0x0a,0x00, 0x15,0x01,0x08,0xff,0x68,0x00,0x96,0xff, // 3472
0x8a,0x00,0xd3,0x01,0xaa,0x06,0x83,0x01, 0x96,0x04,0xd4,0xfc,0x6b,0xfe,0x4a,0x01, // 3488
0x09,0x03,0x91,0xfe,0xe8,0x07,0x08,0xfb, 0xad,0x00,0x36,0xff,0x99,0xff,0x6f,0xfb, // 3504
0xd7,0xff,0xca,0xf9,0x53,0x0a,0x67,0xfa, 0x20,0x01,0x9f,0xff,0x97,0x01,0x98,0x01, // 3520
0x48,0xfb,0x68,0x01,0x58,0xfc,0x2e,0xfd, 0x22,0xfd,0x76,0x00,0x1f,0x01,0xe1,0xff, // 3536
0xe3,0x00,0x4c,0xfd,0x9c,0xfe,0x2e,0xfe, 0xe8,0xfe,0xf0,0xfe,0xf6,0xfe,0x97,0x02, // 3552
0xd2,0xf9,0x78,0x00,0xc4,0xfe,0x39,0xff, 0xcf,0x00,0x4b,0x00,0xcf,0xfe,0xf3,0x00, // 3568
0x1d,0x00,0xba,0xff,0x0b,0x02,0x18,0x07, 0x0a,0x07,0x21,0x00,0x4e,0x00,0x3f,0x01, // 3584
0x38,0xff,0x97,0x00,0x5c,0xff,0xf9,0xfd, 0x83,0xff,0x15,0xff,0x52,0x01,0x03,0xff, // 3600
0x5b,0xfe,0x78,0xf9,0x06,0x06,0x81,0x00, 0xb0,0xfc,0x49,0xff,0x80,0x01,0xca,0x00, // 3616
0x14,0x00,0xf0,0x06,0x65,0x01,0x63,0xfd, 0x58,0xff,0xb5,0xfe,0x21,0x02,0x71,0xfd, // 3632
0x09,0x00,0xb6,0x01,0xd6,0xf6,0x90,0xff, 0x37,0x00,0x1f,0xff,0xfe,0xfd,0x56,0x02, // 3648
0xc6,0x05,0x67,0x0c,0xaf,0xfe,0x52,0xf9, 0x40,0xfa,0x7e,0x05,0x53,0x03,0x09,0x04, // 3664
0x3c,0xfe,0x83,0x00,0x46,0x00,0x2e,0xff, 0xf5,0xfd,0xca,0xfc,0x5c,0xff,0x88,0x00, // 3680
0x27,0x01,0xb9,0xfd,0x83,0xfb,0xfe,0xff, 0x62,0x00,0xea,0x00,0xf7,0x00,0x05,0xff, // 3696
0xdc,0xff,0x82,0xfe,0x9b,0xfd,0x78,0xff, 0x92,0x02,0x5f,0xfe,0x49,0x00,0x04,0xfd, // 3712
0x5f,0xff,0x44,0xf7,0x7c,0xfe,0x4d,0xfe, 0x55,0x02,0xe5,0xff,0x1f,0x00,0x74,0xfe, // 3728
0x7a,0xff,0x6a,0xfd,0xa5,0xfe,0xcb,0xff, 0x22,0xff,0xbe,0x09,0xac,0x01,0x3d,0xfc, // 3744
0x87,0xf8,0x5b,0xfd,0x95,0x05,0x76,0xfe, 0x09,0xff,0x03,0x00,0x16,0xff,0x05,0x00, // 3760
0x90,0x02,0x97,0xfe,0x16,0xff,0xfd,0x00, 0xf0,0x01,0x41,0x01,0xc5,0x00,0x22,0x02, // 3776
0x7a,0x01,0x63,0xfe,0xb2,0x01,0xa8,0xfa, 0x90,0xfe,0xe2,0xfe,0xd2,0xff,0xee,0x01, // 3792
0x9b,0x0c,0x11,0x01,0x1e,0xfd,0x2c,0x00, 0x1f,0xfe,0xba,0x0c,0xbe,0xfd,0x93,0xfd, // 3808
0xbe,0x03,0x15,0x08,0xf5,0xfb,0xbd,0x00, 0xde,0x01,0x23,0x02,0xa5,0xff,0x15,0xfe, // 3824
0x82,0x00,0xd4,0xff,0xb5,0x01,0x2d,0x02, 0x04,0x00,0x18,0x02,0xfe,0xfc,0xf9,0x01, // 3840
0x72,0x0b,0x65,0x01,0xd0,0x01,0x47,0x00, 0x14,0xfe,0x6f,0x00,0x0e,0x02,0xbd,0xfe, // 3856
0xc6,0x00,0x20,0x00,0x97,0x02,0x2b,0xfd, 0x32,0x01,0x23,0x07,0x25,0xff,0x53,0x01, // 3872
0x9b,0xfc,0xbc,0x02,0x7e,0x05,0xb8,0xff, 0xa6,0xf7,0xcd,0xfe,0x7b,0x01,0x3d,0x01, // 3888
0x71,0xff,0x80,0x02,0x52,0x04,0xff,0x01, 0x27,0x00,0xc9,0xfe,0xb9,0xff,0xb6,0x01, // 3904
0x5f,0xfd,0x0b,0x00,0x17,0xfd,0x89,0xfd, 0xc8,0xfd,0xa7,0xfc,0x1e,0x01,0xbb,0xff, // 3920
0xcd,0xfd,0xb7,0x02,0x7d,0xff,0x37,0x08, 0x66,0xfe,0x86,0xff,0xf1,0x03,0xff,0xff, // 3936
0x2e,0xfe,0xc2,0x00,0x2d,0xfb,0x88,0x05, 0xb5,0xff,0x6c,0x01,0x35,0xfc,0xc9,0x00, // 3952
0x17,0xff,0x42,0x00,0xa8,0x00,0x22,0xff, 0xf6,0x00,0x86,0xff,0x13,0xfe,0x23,0xff, // 3968
0xfa,0x02,0x25,0xff,0xa6,0x01,0x73,0x00, 0x7c,0x04,0x69,0xfa,0x2d,0xfd,0xbd,0xff, // 3984
0xe4,0x00,0x6a,0xfe,0xc2,0x02,0x31,0xff, 0x66,0x00,0xa9,0xfd,0x3f,0x00,0x9e,0xff, // 4000
0x29,0x02,0xe0,0x02,0x7e,0x07,0x1d,0xfc, 0x52,0xfd,0x89,0xfb,0xec,0xff,0x29,0xff, // 4016
0x4a,0x01,0x24,0x06,0x6e,0x00,0xb5,0xff, 0xe0,0xff,0x56,0xfe,0x32,0x01,0xdf,0xf8, // 4032
0x18,0xf8,0x9b,0xff,0x13,0xfc,0xc2,0xff, 0x3a,0x00,0xf4,0xff,0x2d,0x00,0xab,0xff, // 4048
0xeb,0xff,0xe8,0xff,0xe5,0x00,0x01,0x05, 0xc4,0xff,0x86,0xf7,0xbe,0x08,0x33,0xfb, // 4064
0x9f,0xff,0x6e,0xff,0x91,0xfe,0x36,0x04, 0xa3,0x03,0x6d,0x00,0xbc,0xfe,0x9b,0x00, // 4080
0x66,0xff,0x27,0x02,0x22,0xfe,0x47,0xfe, 0x85,0x03,0xbc,0xff,0x2e,0x00,0x95,0x01, // 4096
0x19,0x00,0x5c,0x03,0x18,0x01,0x9f,0xf9, 0x02,0xff,0x51,0xff,0x1b,0x02,0x73,0x02, // 4112
0x39,0xff,0xdb,0x05,0xb8,0xf3,0x39,0x02, 0xfa,0x01,0x2d,0x06,0xff,0x05,0x3c,0xfd, // 4128
0xb7,0xfa,0x7c,0xff,0x71,0x00,0x34,0xfc, 0xa4,0xff,0xc7,0xfa,0x25,0x00,0xd9,0xff, // 4144
0xd2,0x00,0x6f,0x00,0x01,0x00,0xa6,0x08, 0x56,0xf5,0x1e,0x06,0xf8,0x00,0x9a,0x00, // 4160
0x10,0xfb,0x31,0xff,0x4e,0x00,0x7a,0xff, 0xd0,0xff,0xb5,0x06,0x07,0x0d,0x4b,0x00, // 4176
0x16,0xff,0x55,0xfc,0x5b,0xfe,0x12,0x05, 0xfc,0xfe,0x02,0x00,0xf7,0xfa,0x91,0xf6, // 4192
0xe9,0x00,0xf2,0xfe,0x6c,0x04,0x4e,0xff, 0x38,0x00,0x1b,0x01,0x45,0x00,0x8b,0xfe, // 4208
0xce,0xfc,0xfd,0xfd,0x96,0x05,0xc0,0x00, 0x85,0xff,0x6f,0x00,0x0f,0xff,0x62,0x02, // 4224
0x34,0x01,0x27,0xfe,0x4c,0xff,0xec,0xff, 0xbc,0xfe,0x4d,0x00,0xba,0xfe,0xdd,0x00, // 4240
0xd5,0xfe,0xc0,0xfc,0x65,0xfe,0x2b,0xff, 0x87,0xfe,0x5f,0x00,0x6a,0x00,0x49,0x00, // 4256
0xc5,0xfe,0x51,0x03,0x84,0x01,0x5b,0xff, 0x0d,0xf6,0x5e,0xff,0xdf,0xff,0x37,0x09, // 4272
0x0b,0x00,0xaa,0xff,0xb7,0xff,0x9f,0xfd, 0xda,0x01,0x8f,0xff,0x04,0xff,0xba,0xff, // 4288
0x2e,0x02,0x14,0x03,0xbc,0x08,0xee,0x00, 0x17,0xff,0xe8,0x00,0x5e,0x00,0x45,0xff, // 4304
0xb2,0xff,0xa3,0xfc,0xc2,0x00,0x2c,0x03, 0xc9,0x02,0x47,0x01,0x60,0x01,0xe9,0xff, // 4320
0xf2,0x00,0x69,0x03,0xf8,0xfd,0xd2,0x01, 0x01,0xf9,0x1a,0xfd,0x9c,0x00,0xbc,0xff, // 4336
0xda,0x03,0xb3,0x01,0x3c,0xfe,0xb7,0xfe, 0xbe,0x00,0x19,0xff,0x0d,0x02,0x80,0xfd, // 4352
0xce,0xff,0xfa,0xfb,0x66,0xff,0xda,0xf9, 0x3b,0x02,0xa4,0x00,0x49,0x00,0x88,0x00, // 4368
0xa6,0xff,0x13,0x00,0x25,0x00,0x7b,0xfe, 0xd4,0xfa,0x5e,0xfd,0xb8,0xff,0x45,0x02, // 4384
0xe1,0x02,0xde,0x01,0x01,0xf9,0x07,0x00, 0x83,0xfd,0x8a,0xfd,0xfd,0xff,0x1d,0x02, // 4400
0xe2,0xff,0x5f,0xfd,0x08,0xfe,0xaf,0x00, 0x32,0x00,0x54,0x00,0x84,0xf8,0x12,0x01, // 4416
0x7f,0x00,0xcf,0x01,0xfe,0xff,0xac,0xff, 0x5d,0x00,0x61,0x00,0x6e,0xff,0x6e,0xfd, // 4432
0x6e,0x00,0xe3,0xfd,0x2e,0x01,0x81,0x00, 0x27,0x00,0x75,0xff,0x14,0xff,0xd6,0xff, // 4448
0xf0,0xfe,0x4f,0xfd,0xeb,0xff,0xda,0xf8, 0xc2,0x00,0xe6,0x00,0xcc,0x00,0x7b,0xfe, // 4464
0x61,0x0a,0x12,0x00,0xda,0x01,0xcd,0x00, 0xf9,0xff,0x5d,0xfe,0x58,0xff,0x0d,0x00, // 4480
0x88,0xff,0xd4,0x03,0x5f,0x00,0x35,0x00, 0xff,0x01,0x3e,0x01,0x4d,0x00,0xd7,0xff, // 4496
0x60,0xff,0xf3,0xfe,0xdf,0xff,0x93,0x01, 0xea,0xff,0x85,0x00,0x97,0xff,0x01,0xfe, // 4512
0xca,0xfe,0x8b,0xfd,0xce,0xff,0x95,0xff, 0xa2,0xff,0xf5,0xfd,0xd8,0xff,0x32,0x00, // 4528
0xf3,0xff,0xcd,0xff,0x8e,0xff,0xe0,0xff, 0xd3,0xff,0xbb,0x00,0xb5,0xff,0x68,0x00, // 4544
0xf4,0xff,0xe8,0xfe,0xe5,0xff,0x12,0x00, 0xea,0xff,0x58,0xfd,0x2c,0xfe,0x60,0xfe, // 4560
0x0f,0x02,0x3d,0x00,0x05,0x00,0x3e,0x00, 0xef,0xff,0x9e,0xff,0xef,0x00,0x3a,0x00, // 4576
0xc3,0xfd,0x89,0x01,0xf0,0x04,0xc3,0xfa, 0xa3,0xf7,0x1a,0xfe,0x30,0x0d,0x4b,0xff, // 4592
0x0c,0x00,0x3e,0x00,0x0d,0x00,0x5b,0xff, 0xc4,0x00,0x33,0x01,0x33,0xfe,0xd7,0x00, // 4608
0xe5,0xff,0xc5,0x00,0x55,0xff,0x74,0xff, 0xd1,0x00,0xca,0xff,0x10,0xff,0xff,0xff, // 4624
0xed,0xfa,0x4f,0x00,0x5e,0xff,0x59,0xff, 0x01,0x02,0xc3,0x00,0x02,0xfd,0xea,0x00, // 4640
0xd8,0xff,0x17,0x07,0xf9,0xfe,0x1d,0x01, 0x7c,0x00,0xa0,0x07,0x5a,0xf8,0xd6,0xff, // 4656
0x93,0xff,0x31,0x00,0xa7,0x00,0xb5,0xff, 0x7c,0x00,0xa3,0x00,0xf3,0xff,0x30,0x00, // 4672
0x7a,0xff,0xf7,0xfd,0xb6,0xff,0x45,0x03, 0x51,0x07,0x24,0x00,0x31,0xff,0xd1,0xff, // 4688
0xf4,0xff,0x6d,0xff,0x77,0x00,0x08,0x00, 0x7b,0xff,0x53,0x00,0xbe,0x04,0x92,0xfa, // 4704
0x0c,0x01,0x46,0x06,0x8c,0x00,0x10,0x00, 0x05,0x00,0x84,0x00,0xa2,0x04,0xa3,0x00, // 4720
0x45,0xfe,0x16,0x00,0xfe,0xfe,0xad,0x02, 0x14,0xff,0x17,0x00,0xd4,0x00,0x97,0x00, // 4736
0xb8,0xff,0x7d,0x00,0x28,0xff,0x77,0xff, 0x5b,0xff,0xe6,0xff,0x64,0x00,0x15,0xff, // 4752
0x7c,0xfc,0x97,0xfe,0xde,0xff,0xc7,0xf9, 0x14,0xfa,0xbd,0x00,0xd9,0x00,0x4a,0x09, // 4768
0x60,0x00,0x53,0x00,0x7d,0x00,0x04,0x00, 0xba,0xff,0xf5,0xfe,0xe5,0xf9,0x9e,0x02, // 4784
0x72,0x00,0xf5,0x04,0xf7,0xf6,0x1a,0x00, 0x83,0x02,0xdd,0x00,0xb9,0xff,0xa8,0x02, // 4800
0x73,0x00,0x96,0x03,0x86,0x03,0xea,0xff, 0x33,0xfc,0x5b,0xff,0xc9,0xfd,0xac,0x01, // 4816
0xca,0xff,0xfa,0x04,0x5a,0x03,0x6f,0xff, 0x19,0xfd,0x8d,0x02,0xbc,0xfc,0x12,0x03, // 4832
0x2a,0xff,0xfd,0x06,0x21,0x00,0x7c,0x03, 0xe0,0xfb,0x52,0xff,0x42,0xff,0x38,0x02, // 4848
0xa8,0x05,0x8b,0x07,0x47,0x02,0x1e,0x00, 0x0b,0xff,0x4b,0xf6,0x8f,0xfe,0x7e,0x00, // 4864
0x4e,0x01,0xc9,0x02,0xb8,0xfe,0x2d,0x04, 0x2b,0x03,0x3e,0x01,0xe0,0x02,0x6a,0x00, // 4880
0xba,0xfd,0x7a,0xfe,0xcf,0x01,0xba,0xff, 0xcd,0xff,0xfa,0xfd,0x9f,0xfe,0x73,0xf9, // 4896
0xda,0xfc,0xde,0x01,0xfb,0xf8,0xb0,0x05, 0x06,0x01,0x5a,0x00,0x48,0x01,0xa4,0xf9, // 4912
0x12,0xfa,0x4f,0x00,0x53,0x00,0xec,0xfe, 0x03,0x01,0x42,0xfc,0x9a,0x04,0x2f,0x01, // 4928
0xb3,0xfc,0xba,0xfd,0x32,0x02,0xa0,0x00, 0x06,0xff,0x31,0xfb,0xd7,0xff,0xd3,0x03, // 4944
0x0c,0xfe,0x56,0x01,0x11,0xfc,0x60,0xfc, 0x01,0x02,0xb7,0xfe,0x7f,0x05,0xd6,0xfb, // 4960
0x27,0xfa,0xb3,0xfc,0x6d,0xfa,0xd3,0xff, 0xb2,0x01,0xfd,0xff,0x81,0xfe,0x45,0x08, // 4976
0x09,0x00,0x1c,0x01,0x44,0xff,0x2b,0x01, 0xf8,0xfe,0x76,0xfc,0x78,0xff,0x36,0xfb, // 4992
0xa9,0x05,0xaa,0xfb,0xad,0xfd,0x94,0xff, 0xac,0x06,0x36,0x01,0x66,0xfe,0xe5,0x00, // 5008
0xfc,0x02,0x06,0xfb,0x8e,0xfa,0x3a,0xfe, 0xb2,0xff,0x22,0x07,0xd2,0x02,0xa2,0xf8, // 5024
0x31,0x01,0xa6,0xff,0x2b,0x06,0x92,0x04, 0xb9,0x01,0x1b,0x02,0x6c,0xfb,0xd5,0x00, // 5040
0x7d,0x01,0x17,0xfd,0x50,0xff,0xf5,0xfd, 0xfc,0x04,0xcc,0x02,0x3a,0xfc,0x6e,0xff, // 5056
0x06,0x02,0xed,0xfd,0x49,0x02,0xfd,0xf8, 0x3d,0xff,0x6b,0xff,0xee,0x02,0x0b,0xff, // 5072
0x55,0xff,0x2c,0x01,0x67,0x00,0x87,0xff, 0x5f,0xfe,0xfb,0x00,0x2a,0x00,0xd9,0x0d, // 5088
0x28,0xff,0x0a,0x00,0xdb,0x01,0xc6,0x00, 0x34,0xff,0xfc,0xff,0x03,0x02,0x74,0xee, // 5104
0xb3,0xff,0xba,0xff,0x64,0xfe,0xfd,0xff, 0x80,0x00,0xe6,0x01,0x40,0x01,0xa3,0x00, // 5120
0x3a,0x00,0xd0,0x00,0xd1,0x00,0xd8,0x01, 0x62,0x00,0x31,0x00,0x75,0x00,0x10,0x00, // 5136
0xab,0xff,0xc0,0xff,0x79,0x00,0x61,0x00, 0x55,0x00,0x48,0x00,0xef,0xfe,0xdb,0x00, // 5152
0xce,0x00,0x21,0x03,0xd9,0x00,0xc4,0x1a, 0x18,0x02,0x28,0x00,0x01,0xfe,0x96,0x00, // 5168
0x4f,0x00,0x89,0xff,0x8e,0xff,0x30,0xff, 0xd5,0xff,0xa7,0xff,0x34,0xff,0x0f,0x00, // 5184
0x55,0x00,0x78,0x01,0xdb,0x00,0xc6,0xfd, 0xe4,0xfe,0x51,0x00,0x5d,0x00,0x86,0x00, // 5200
0x45,0xff,0x89,0x01,0xe7,0xfe,0x28,0x00, 0xef,0xfe,0x6e,0xff,0xa7,0x00,0x78,0xfe, // 5216
0x73,0xff,0xd1,0xff,0x1a,0xf8,0xbb,0xff, 0x8e,0x01,0x17,0xff,0xc3,0xff,0x10,0x01, // 5232
0xf2,0xff,0x97,0xff,0x5c,0xff,0x1b,0x00, 0xb5,0xff,0x49,0xff,0x9c,0xfe,0x3f,0xff, // 5248
0x72,0x00,0x2a,0x01,0x46,0x00,0xf3,0x00, 0xfe,0xfe,0x94,0xff,0xe4,0x00,0xa0,0xff, // 5264
0x55,0x00,0x39,0x00,0xe5,0xe6,0xdd,0xfe, 0xbc,0x00,0x6f,0xfe,0x0a,0x01,0x11,0xe7, // 5280
0x44,0xff,0x0f,0x01,0x48,0xff,0xbe,0xff, 0xf3,0xfe,0xb5,0xfe,0x1d,0xff,0x56,0xff, // 5296
0xe1,0x00,0xab,0x00,0x69,0x00,0x41,0xff, 0x7a,0x00,0x4c,0xe9,0xd0,0x00,0x12,0x00, // 5312
0xeb,0xff,0x65,0x00,0x9f,0xfe,0xfc,0xfe, 0x13,0xff,0x3d,0x00,0x78,0xea,0x3b,0x00, // 5328
0x88,0x01,0xdd,0x00,0x06,0xff,0xfe,0x00, 0x44,0x00,0xe0,0xfe,0x8b,0xff,0x4f,0x00, // 5344
0x0b,0xe6,0xa4,0x01,0x15,0x00,0xc0,0xff, 0x07,0xff,0x2c,0x00,0x48,0x01,0x53,0xfc, // 5360
0xc4,0xff,0x33,0xfe,0x82,0xff,0x55,0x03, 0xee,0x01,0x06,0x02,0x4a,0x00,0x61,0x00, // 5376
0x5f,0xff,0xda,0xfd,0x2b,0xfe,0xa8,0xfb, 0x80,0x04,0x04,0x00,0xc2,0xff,0x05,0xfc, // 5392
0x4a,0x02,0x23,0x00,0xf5,0xff,0x44,0xfe, 0xab,0x00,0x81,0xff,0x7d,0x00,0x7f,0x00, // 5408
0x7f,0xfd,0xc0,0xfd,0x85,0xfd,0xd5,0xff, 0x79,0xfc,0xc6,0xff,0xa0,0xff,0xe4,0xff, // 5424
0x38,0x00,0xd2,0xfe,0xe4,0xff,0x97,0xfe, 0x22,0xfe,0x8f,0x03,0xef,0xfe,0x38,0x04, // 5440
0x54,0x01,0xff,0xff,0x48,0xff,0x58,0x03, 0xc6,0x01,0xc6,0x07,0x90,0xff,0xc3,0x01, // 5456
0x45,0x00,0x1d,0xff,0xa7,0x01,0x8b,0xff, 0xac,0xff,0xe5,0x00,0x6b,0xfb,0xed,0x02, // 5472
0x8b,0xff,0x5c,0x01,0x9f,0xff,0x97,0x01, 0xd9,0xff,0x84,0x00,0x50,0x00,0x7b,0xff, // 5488
0x59,0xff,0x21,0x00,0x62,0xff,0x78,0x00, 0x12,0x03,0x17,0x05,0x49,0xfc,0xbd,0xfe, // 5504
0x4b,0x00,0x7f,0xfa,0x95,0x03,0x0f,0x01, 0x2e,0x00,0xdf,0x00,0xe2,0xfe,0x9f,0x01, // 5520
0x05,0x00,0xde,0x01,0xf7,0x01,0xbd,0x00, 0x44,0xff,0xce,0xff,0x9c,0x01,0xd2,0xfd, // 5536
0xf6,0xff,0xfa,0xff,0x35,0x00,0x9d,0x00, 0x4a,0x00,0x08,0x00,0x1a,0xfb,0x28,0x01, // 5552
0x0e,0x00,0xe6,0x00,0x47,0xff,0x6b,0xfb, 0xd4,0xff,0x8e,0x00,0x4b,0x00,0xb1,0x00, // 5568
0x4e,0x00,0xb0,0x01,0x14,0x01,0x40,0x05, 0x9a,0x00,0x0e,0xff,0x0f,0x00,0x56,0x02, // 5584
0x0c,0xfc,0x19,0xfc,0x52,0xfe,0x40,0xff, 0xef,0xff,0x11,0xfe,0x07,0x01,0xcd,0xff, // 5600
0x05,0x00,0xa0,0x01,0xf1,0xfb,0xe9,0xff, 0x90,0xfd,0xc1,0xfc,0x55,0x00,0x68,0x01, // 5616
0x88,0xff,0x7b,0xff,0x2d,0x00,0x39,0x00, 0x86,0xfb,0xbf,0xff,0x1b,0x00,0x6d,0x01, // 5632
0xe0,0xff,0xf9,0x00,0x7e,0xfa,0x5d,0x05, 0xf9,0xff,0xa2,0x00,0xac,0xff,0x82,0x00, // 5648
0xfe,0xf6,0x3b,0xff,0x86,0xff,0x9f,0xfc, 0xd1,0xfe,0xd1,0x00,0x49,0x01,0xbc,0xff, // 5664
0xd3,0x00,0xf9,0xff,0xf1,0xf5,0xce,0x00, 0xb4,0xfd,0xa6,0x04,0xa0,0xff,0x44,0x01, // 5680
0x0c,0x00,0x1b,0xfe,0x4d,0xff,0xa0,0x07, 0xef,0x08,0x15,0x07,0x28,0x01,0x6e,0x01, // 5696
0x09,0x00,0x02,0x00,0x77,0xff,0x4d,0x01, 0x28,0x01,0x93,0x02,0x32,0xff,0xb2,0x01, // 5712
0xe0,0x01,0x3b,0x01,0x48,0x0a,0x16,0x02, 0x9c,0xfe,0x70,0x00,0xd9,0x00,0xc0,0xfe, // 5728
0x6d,0x00,0x72,0xfe,0xaf,0x03,0x07,0xf8, 0xcb,0xfe,0x48,0x01,0xcb,0xfd,0x0a,0xfe, // 5744
0x61,0x01,0xb6,0xfe,0xd0,0x03,0x39,0xf7, 0xc6,0xfd,0x50,0xfd,0x99,0x01,0x10,0xfe, // 5760
0xea,0xfe,0x20,0x00,0xa4,0xfe,0xad,0xff, 0xa4,0xfa,0x07,0x00,0xb5,0x01,0x84,0xff, // 5776
0x28,0xff,0x7b,0xfd,0x23,0xff,0xaa,0x00, 0xc7,0x01,0x32,0x01,0x0e,0x00,0x23,0x00, // 5792
0x6b,0xfe,0x91,0xfe,0x91,0x01,0xa2,0xfe, 0xd4,0xff,0xa4,0xff,0x5e,0xfc,0xbb,0x01, // 5808
0x61,0x00,0x18,0x00,0xae,0xff,0x3e,0x0e, 0xcf,0x00,0xd1,0x00,0x89,0xfd,0x1c,0x01, // 5824
0x8f,0xff,0x56,0xfd,0xeb,0xfe,0x12,0xfe, 0x91,0x01,0xe1,0xf8,0xae,0xfe,0xc8,0xfe, // 5840
0x82,0x00,0x62,0xfd,0x37,0x02,0x45,0xff, 0x3c,0xff,0x81,0xfe,0x48,0x00,0x43,0xff, // 5856
0xcf,0x01,0x5f,0x0c,0x92,0x00,0xef,0xf7, 0x4e,0xff,0xd7,0xfe,0x3f,0x07,0x04,0x01, // 5872
0x20,0x02,0x94,0xff,0xf6,0xf5,0x81,0x01, 0x21,0x01,0x75,0xfd,0x30,0xff,0xfa,0xfd, // 5888
0x4c,0x02,0x12,0x06,0x9e,0xfa,0xbc,0xfc, 0x96,0xfd,0xf0,0x00,0xa4,0x01,0x0e,0x01, // 5904
0xe6,0xfe,0x13,0xff,0x78,0x01,0x7c,0xff, 0xcf,0x00,0x6a,0xff,0xb4,0xff,0xc8,0xff, // 5920
0xfe,0xff,0x97,0xfe,0x4e,0x01,0x25,0x00, 0xc9,0x00,0x1b,0x02,0xdb,0xff,0xe9,0xff, // 5936
0x95,0x00,0xf8,0xfe,0xc0,0x00,0x3d,0xff, 0x70,0x07,0xab,0xfe,0x8d,0xff,0x1e,0xfa, // 5952
0xa1,0xff,0xca,0x00,0x01,0x00,0x53,0xff, 0xcf,0x00,0x56,0x00,0x2a,0x00,0xf2,0xff, // 5968
0xfd,0xff,0x6f,0x00,0xf3,0xf9,0xa4,0x02, 0x85,0xfe,0x99,0xff,0x03,0x00,0xfc,0xff, // 5984
0x2f,0x00,0xf0,0xfe,0x36,0x00,0x93,0xff, 0xc5,0xff,0x71,0x00,0x92,0xff,0x38,0xff, // 6000
0xe2,0xff,0x70,0x00,0xef,0xff,0x4e,0x03, 0x40,0x02,0x2f,0x03,0x02,0x01,0x99,0x00, // 6016
0xda,0x00,0xfd,0xfe,0xa1,0xff,0xfe,0x00, 0x5e,0x00,0x8c,0x00,0x84,0xfe,0xa3,0xff, // 6032
0xee,0xff,0x07,0x02,0xe3,0xff,0x6f,0x05, 0xf2,0xfe,0xec,0xff,0xf9,0xfe,0x62,0x00, // 6048
0x26,0x01,0xee,0xff,0xdd,0xfe,0xed,0x01, 0xa1,0x03,0x33,0x01,0x7d,0xff,0x0a,0xff, // 6064
0xea,0xff,0x12,0xf9,0xa2,0x01,0x82,0x00, 0xf2,0xff,0x7d,0xff,0x7e,0x00,0x1a,0x00, // 6080
0xa8,0x00,0x2e,0x01,0x45,0xff,0x5e,0xff, 0xb3,0xff,0x18,0x00,0xa8,0x02,0x0b,0x01, // 6096
0xff,0xff,0xd9,0xfe,0x25,0x00,0x63,0xff, 0x10,0x00,0x76,0x00,0x47,0xff,0x6b,0xff, // 6112
0x70,0x00,0x0a,0x00,0x7d,0x00,0x92,0xff, 0xeb,0xff,0x94,0xff,0x51,0x00,0x13,0xff, // 6128
0x74,0x00,0x6a,0x01,0xe8,0x00,0x47,0x09, 0xaa,0xff,0x8d,0x00,0x4d,0x00,0x7c,0xfe, // 6144
0x9d,0xf7,0x3e,0xff,0xe5,0xff,0x02,0x00, 0xc9,0xff,0xc1,0xfe,0x70,0x00,0xbf,0x00, // 6160
0xc9,0xff,0x97,0x01,0x39,0xff,0x1a,0x00, 0x46,0x00,0x6f,0x00,0x74,0x01,0x63,0x00, // 6176
0x15,0xff,0x71,0x00,0x29,0xfe,0xc3,0xff, 0x89,0x00,0x3d,0x00,0xac,0x00,0x75,0x01, // 6192
0xf6,0x00,0x63,0xff,0xc7,0xfd,0x90,0x03, 0x70,0x03,0x2c,0x05,0xdd,0x01,0xe9,0xff, // 6208
0x04,0xff,0x9b,0x01,0xf9,0xfd,0x1f,0xec, 0xc2,0xff,0xfd,0xfc,0xb4,0x00,0x4a,0xff, // 6224
0x5e,0x04,0xa3,0xfc,0x70,0xfe,0xf7,0xfa, 0x36,0xf7,0xab,0xfe,0xc5,0xff,0xb5,0x03, // 6240
0xcc,0xfb,0x3f,0x00,0x9d,0x00,0x7a,0xff, 0xde,0x00,0x62,0xff,0xf7,0xf9,0x9f,0x01, // 6256
0xaa,0x00,0xf5,0x02,0xe1,0x00,0x7e,0xff, 0x41,0x00,0x4a,0x01,0xef,0xfe,0x82,0xfe, // 6272
0xe5,0xfe,0x1a,0x00,0xaf,0x00,0xee,0x00, 0xe1,0xfe,0x96,0xf9,0x3d,0x00,0xc7,0xff, // 6288
0x6f,0x07,0xeb,0xff,0x2c,0x06,0x78,0xfe, 0x36,0xfd,0xb3,0xfe,0x5a,0x02,0xe9,0xfc, // 6304
0x42,0x00,0xdf,0xf2,0x23,0x04,0x5c,0x00, 0x74,0x02,0xfd,0x04,0x02,0x00,0xd9,0x04, // 6320
0xf4,0xf4,0xc7,0xff,0x6e,0xf8,0x32,0xf8, 0xae,0x00,0x0c,0x00,0x80,0xfe,0xca,0x06, // 6336
0xc6,0x07,0x68,0x01,0x91,0xff,0x64,0xfd, 0x41,0xf9,0x46,0xfe,0xee,0x03,0x37,0x05, // 6352
0xc0,0xfe,0xa8,0x01,0xce,0xff,0xd3,0xfb, 0x77,0x01,0xee,0x00,0x0f,0x00,0x4a,0x00, // 6368
0xef,0xff,0xf0,0xff,0xdb,0x07,0x86,0x01, 0x04,0x08,0x4a,0xfe,0xf8,0xff,0x50,0x00, // 6384
0x1d,0x00,0xc4,0x00,0xa3,0xff,0x82,0x02, 0xea,0xfe,0xb9,0x01,0xc5,0x00,0xc7,0xff, // 6400
0x1d,0xfe,0x8b,0xf8,0x66,0x10,0x4a,0x00, 0x6b,0x00,0x9a,0x01,0xf9,0x01,0x00,0x05, // 6416
0xa7,0xff,0xf7,0x02,0x99,0x00,0x4a,0xff, 0xd3,0xfb,0x3d,0x00,0xf3,0xfe,0x71,0xfc, // 6432
0x04,0xff,0xb6,0x07,0x62,0xfe,0xe5,0xff, 0x0f,0x00,0xd8,0xfc,0xf2,0xff,0x37,0x00, // 6448
0xd4,0xff,0xb1,0x00,0x9b,0x01,0xe0,0xf8, 0x69,0xfe,0x8e,0x08,0x87,0xfe,0xad,0x01, // 6464
0xba,0xff,0xde,0xff,0x6f,0x00,0x78,0x0a, 0xb2,0x00,0xbe,0xfa,0xcc,0x03,0x15,0xfe, // 6480
0x93,0x02,0x96,0x03,0x83,0x02,0x92,0xff, 0x72,0x03,0x00,0x00,0x01,0xfd,0x0f,0x01, // 6496
0xa9,0x01,0x8b,0xff,0xd3,0x01,0xbf,0xff, 0x1c,0x02,0x83,0xfb,0x16,0x05,0xb9,0xfe, // 6512
0x78,0x02,0x84,0xfe,0x3e,0xff,0x68,0x01, 0x41,0xfd,0xc8,0xff,0xb8,0xff,0x96,0xf8, // 6528
0xa8,0xfc,0x9b,0xfd,0x0f,0xfe,0x3e,0x02, 0xfa,0x02,0xe7,0xff,0x53,0x00,0x30,0xfc, // 6544
0xdb,0xfe,0xac,0x03,0x63,0x00,0x8e,0x00, 0x99,0xff,0x39,0xff,0x46,0xf9,0xe2,0xff, // 6560
0x33,0xfa,0x06,0xfe,0x9a,0x05,0xc5,0xfd, 0xbc,0x01,0x78,0xfe,0x49,0xfe,0xf0,0x02, // 6576
0xea,0xfc,0x49,0xff,0x7a,0x00,0xd2,0x00, 0x66,0x00,0x26,0x02,0xd6,0xfe,0x7c,0x02, // 6592
0xa6,0x01,0x2e,0x03,0x3d,0xfc,0x1b,0x02, 0xe4,0x01,0xda,0xff,0x39,0x01,0x58,0x01, // 6608
0x5b,0x05,0x91,0x02,0x29,0xfb,0x4b,0x02, 0x73,0x01,0x18,0x00,0x42,0x01,0x80,0xff, // 6624
0xad,0xfb,0x83,0x00,0xe4,0x01,0xaf,0x00, 0x2a,0x03,0xba,0xff,0x9b,0x00,0x7a,0xfd, // 6640
0x06,0x01,0x3f,0x01,0xd4,0x01,0xcc,0xff, 0xf7,0x00,0xf4,0xff,0x16,0x02,0x0d,0xfd, // 6656
0x54,0xfe,0x32,0xfe,0xc7,0x00,0xb6,0xfb, 0xef,0x00,0x49,0x02,0xda,0xff,0xd8,0xff, // 6672
0xda,0xff,0x9f,0x06,0x47,0xff,0x9e,0xff, 0x7f,0x00,0x51,0x01,0x27,0xff,0xea,0x00, // 6688
0x7a,0x03,0xd3,0x02,0x80,0x00,0xe6,0x01, 0x69,0xfe,0xca,0xfc,0xe2,0x00,0xb4,0x01, // 6704
0x64,0xfd,0xa5,0x00,0x12,0xfb,0x95,0xff, 0x1f,0xfe,0x02,0x02,0x47,0x03,0x7a,0xfe, // 6720
0x0f,0xff,0xc1,0xfb,0x22,0x01,0xfe,0x01, 0xb7,0xff,0xba,0xfd,0xdc,0x07,0xa1,0x01, // 6736
0x85,0x03,0xf4,0xfe,0xde,0xfb,0x03,0xff, 0xc8,0xff,0x92,0x01,0x9f,0xfd,0x9c,0x00, // 6752
0x9f,0x00,0x07,0x04,0x47,0xff,0x1d,0x00, 0xd0,0xfe,0x23,0x01,0xc3,0x00,0x9a,0xff, // 6768
0x58,0xff,0x96,0xff,0x2c,0x01,0x35,0x00, 0x0b,0x01,0x6e,0x00,0xdb,0xff,0x46,0x00, // 6784
0xe2,0xfe,0x44,0x02,0x49,0xff,0x97,0x00, 0xed,0xff,0x4f,0x07,0x9c,0xff,0xf8,0x00, // 6800
0x6e,0xff,0x23,0x00,0xb4,0x00,0x98,0x01, 0x7c,0x00,0x8f,0x00,0x3e,0xff,0xcb,0xff, // 6816
0xc7,0x00,0x84,0xfc,0xfd,0xfc,0xdb,0x07, 0xd7,0x0c,0xab,0x00,0x72,0xf4,0x8e,0x00, // 6832
0xf5,0xfe,0xd6,0xff,0x54,0x01,0xee,0xfe, 0x77,0xff,0xc4,0xfe,0xd8,0xff,0xbf,0xfe, // 6848
0xc1,0xff,0xe2,0xff,0x63,0x00,0x99,0x00, 0xd6,0x01,0xc8,0xff,0xd1,0xff,0xa3,0x01, // 6864
0x64,0x04,0x39,0x00,0x5b,0x01,0x6d,0xff, 0x0a,0xfb,0x95,0xff,0x65,0x06,0xc0,0xff, // 6880
0x24,0xff,0xaa,0xf2,0xf6,0xff,0x94,0xff, 0x5d,0xfc,0x34,0xf4,0xc7,0x07,0xe2,0xfe, // 6896
0xe2,0xfe,0x19,0xff,0xa7,0x00,0x18,0x00, 0xc7,0x00,0x01,0x00,0x92,0x00,0xe1,0x00, // 6912
0xb4,0x00,0x7f,0x00,0xd5,0x01,0xc1,0xff, 0xe7,0xf3,0xdd,0x00,0x8b,0xff,0x9f,0xff, // 6928
0xb0,0xff,0x01,0x00,0x27,0x00,0x83,0x01, 0x83,0xff,0xfc,0xff,0xd5,0xfb,0x07,0x0a, // 6944
0x7c,0x00,0x44,0xf1,0x78,0x00,0x15,0x00, 0x4e,0x00,0xa5,0xfe,0x6b,0xf6,0xd2,0x00, // 6960
0x02,0x02,0xfa,0xfe,0x00,0x01,0x8c,0xfe, 0xcb,0xff,0x26,0xff,0x5c,0xfe,0xf2,0xff, // 6976
0xaf,0xff,0xf1,0x01,0x3d,0x00,0x43,0xff, 0x13,0x01,0x2a,0x00,0x1e,0x01,0xea,0x00, // 6992
0xa9,0x03,0x04,0x01,0xd6,0xfe,0x65,0x03, 0x8b,0x04,0xe9,0xfd,0x8c,0x00,0xc1,0xf2, // 7008
0x92,0x00,0x13,0x01,0x77,0xfb,0xd5,0xff, 0xa7,0xff,0xc4,0x00,0xae,0x0c,0xdf,0xfe, // 7024
0xc0,0x00,0x52,0xfd,0x3d,0x08,0x74,0xff, 0xa3,0xff,0xd9,0xfe,0xd4,0x00,0x01,0xfd, // 7040
0x55,0x01,0x39,0x01,0x94,0x01,0x6d,0x00, 0x55,0x04,0x4c,0x01,0xfa,0xfe,0xca,0xfd, // 7056
0xc5,0x00,0x7b,0xf6,0x53,0xff,0x44,0x00, 0xb6,0x07,0x23,0xff,0x05,0x02,0x60,0xf7, // 7072
0x8c,0x00,0xd8,0xff,0xdd,0xff,0x13,0x01, 0xe4,0xfe,0xa8,0x00,0xf3,0x00,0x0f,0xfd, // 7088
0xaa,0xfc,0xc7,0xf8,0x1e,0xfc,0x1b,0x00, 0x33,0x00,0xa0,0x01,0xd8,0xff,0x7c,0xff, // 7104
0xd5,0xff,0x00,0x00,0xfb,0xff,0x58,0xf9, 0x30,0xfc,0x23,0x00,0xd2,0xfd,0x12,0x00, // 7120
0x5c,0x00,0x34,0xfd,0x9f,0x00,0x7a,0xff, 0xf8,0x04,0x25,0x01,0xbc,0x01,0x67,0x03, // 7136
0x85,0xff,0x9f,0xfb,0xe9,0x05,0xaf,0xfd, 0x6a,0x00,0x2b,0xfe,0x24,0x00,0xf8,0x07, // 7152
0x49,0x01,0x4f,0x04,0x76,0x00,0xfb,0x04, 0xf4,0xfb,0x27,0xff,0x30,0xfb,0xe4,0xfd, // 7168
0x24,0x01,0xde,0xff,0xac,0x00,0x22,0x02, 0x74,0x04,0xd7,0x09,0x70,0xff,0xb6,0xf6, // 7184
0x15,0xfc,0x0a,0xff,0x79,0x0d,0x4f,0x02, 0x42,0x00,0x4c,0x03,0xb4,0xfc,0x19,0xff, // 7200
0xcd,0xfe,0x53,0x06,0xce,0x07,0x8f,0xff, 0x47,0x00,0x80,0x00,0x57,0x06,0x2c,0xfc, // 7216
0x9f,0xff,0x4f,0xfc,0xb0,0xff,0xff,0xff, 0x8f,0xff,0x37,0x00,0xba,0xff,0x97,0x04, // 7232
0xf8,0xfc,0xd3,0x03,0x6e,0xff,0x07,0x00, 0x29,0xff,0x8c,0xfe,0xe4,0x00,0x26,0xff, // 7248
0x0d,0xff,0x67,0x07,0x93,0x04,0x43,0x05, 0x44,0x00,0xb8,0xfe,0x02,0x00,0x52,0x03, // 7264
0x2c,0xf9,0x96,0xff,0xc4,0xf9,0x60,0xfb, 0x8e,0xff,0x13,0x02,0xbe,0x03,0x33,0x01, // 7280
0xe5,0xff,0x9e,0xfd,0xa4,0xff,0x75,0x00, 0x5a,0xfa,0x00,0xfb,0xde,0x01,0x0e,0xfe, // 7296
0x21,0x00,0x38,0x01,0x3c,0x01,0x2e,0x00, 0x87,0xff,0xef,0xfe,0x2c,0x00,0xae,0x04, // 7312
0xba,0x01,0x3c,0xff,0x5d,0x01,0xd0,0xff, 0xd2,0x01,0x36,0x01,0x2d,0x01,0xb5,0xfe, // 7328
0xf1,0x00,0x34,0x00,0x47,0xfe,0x45,0xff, 0xb0,0x00,0x27,0xff,0xe9,0xff,0x42,0x00, // 7344
0xcf,0x05,0x81,0x00,0x40,0x00,0x3b,0xfa, 0xc8,0xfe,0x1f,0x01,0xb1,0x00,0x9a,0x00, // 7360
0x07,0x00,0x0e,0x01,0x3f,0x01,0xf2,0xff, 0xd2,0xfe,0x8b,0xff,0x54,0xf8,0xc5,0x00, // 7376
0x4e,0xff,0xc8,0x00,0x75,0xff,0xb9,0xfe, 0x5e,0x00,0x69,0x01,0x93,0x00,0x29,0x00, // 7392
0x94,0xff,0xe5,0xfe,0xcd,0xff,0xa0,0xff, 0x4e,0xfe,0xc7,0xfe,0x57,0x01,0xd8,0xff, // 7408
0xcf,0x05,0xbf,0x03,0xd3,0xff,0xd3,0x00, 0x84,0xfd,0x4a,0xff,0xf4,0xff,0x37,0x01, // 7424
0x1b,0x00,0x8d,0xfe,0xac,0xfd,0xd1,0xff, 0x23,0xff,0x13,0x05,0xa2,0xfe,0x30,0x05, // 7440
0x79,0xfe,0x31,0x00,0x79,0xff,0x0b,0x01, 0xcf,0x00,0x6a,0x00,0xa7,0xff,0x6e,0x04, // 7456
0xae,0x07,0xf5,0x00,0xf6,0xff,0x2f,0x00, 0x93,0xfc,0xe6,0xfe,0xb5,0x02,0x14,0x00, // 7472
0xe2,0x00,0xe5,0x00,0x4a,0x02,0x8b,0xfe, 0x5b,0xff,0xed,0x00,0x4c,0x00,0x27,0xfe, // 7488
0xe1,0xff,0xf0,0xff,0x73,0x05,0xd4,0xfe, 0xe4,0xff,0x9d,0xff,0x35,0x00,0x64,0xff, // 7504
0xdc,0xff,0x75,0xff,0x35,0x01,0x5f,0x00, 0xa2,0x00,0x1d,0x00,0x0b,0x00,0xc7,0x00, // 7520
0x38,0x00,0x27,0x01,0xc0,0x00,0x8e,0xff, 0x07,0x01,0x25,0x01,0xe0,0xff,0x1e,0x08, // 7536
0xf8,0xff,0xcb,0xfe,0x0d,0xff,0xa6,0x02, 0x2d,0xf6,0xbb,0xff,0xc7,0xfe,0x07,0x01, // 7552
0x40,0x00,0xe7,0x00,0x74,0x01,0xc0,0x00, 0x9b,0xff,0x92,0xff,0x9c,0x00,0x41,0x01, // 7568
0xef,0xfd,0xce,0xfe,0x91,0xff,0x35,0x00, 0xe0,0x00,0x20,0x01,0xd9,0x00,0x61,0xff, // 7584
0x3e,0x00,0x65,0xff,0xb9,0xff,0x62,0x03, 0x48,0x04,0xcd,0xff,0x5e,0xfe,0x5c,0x09, // 7600
0x1a,0x03,0xc8,0x05,0x39,0x05,0xf5,0xfe, 0xb2,0xf8,0x1c,0xff,0xa6,0xfc,0x86,0xfc, // 7616
0x46,0x01,0x09,0x04,0x77,0x02,0x7f,0x00, 0x03,0x00,0xa5,0xfe,0x8d,0xf9,0xc7,0xff, // 7632
0x73,0xfa,0x5b,0x02,0xb7,0xff,0xa9,0x07, 0xb3,0xfa,0xcf,0xff,0xb3,0xfe,0x60,0x02, // 7648
0x0a,0x05,0x4f,0x07,0x64,0x00,0xd9,0x01, 0x8d,0x01,0x6f,0xfd,0x08,0x01,0x0e,0xff, // 7664
0x8b,0x00,0x05,0x05,0xc4,0xff,0xae,0x00, 0x58,0x02,0x84,0x00,0xcb,0x02,0xf8,0xfe, // 7680
0x9f,0xfc,0x1d,0xfc,0x51,0x03,0x64,0xfe, 0xf6,0x01,0x35,0xfe,0x4e,0x02,0xb4,0xf4, // 7696
0xbc,0xfa,0x14,0x01,0xfc,0xfc,0xdb,0xff, 0x6e,0xff,0xe1,0xfa,0x22,0x08,0xf7,0xf6, // 7712
0xc6,0xfe,0xdf,0x02,0x9f,0x00,0x76,0x00, 0x6e,0xff,0x2a,0xff,0x89,0xff,0x92,0xfc, // 7728
0xf1,0xff,0x6a,0xff,0x3a,0xff,0x6e,0x03, 0xb6,0x01,0xd5,0xf8,0x21,0x01,0x58,0x03, // 7744
0x1e,0xfc,0x60,0xff,0x41,0x00,0x24,0x01, 0x50,0x02,0x2e,0xff,0x71,0x02,0xca,0xf8, // 7760
0xb8,0xfe,0xbf,0xff,0x91,0xfb,0x7e,0x00, 0x44,0x01,0xb2,0x00,0xef,0xff,0xb8,0x09, // 7776
0x46,0x06,0xec,0xfe,0xec,0xff,0x08,0x00, 0x36,0x00,0x9a,0x00,0x73,0x00,0x84,0xfe, // 7792
0xbf,0x01,0x0e,0xfd,0x19,0xfe,0x84,0x00, 0x80,0x00,0xc7,0xfd,0x42,0x03,0x96,0xff, // 7808
0x29,0x02,0xb1,0xfe,0x33,0xfe,0xef,0xff, 0xd0,0xff,0xab,0x08,0x65,0x01,0x91,0xf7, // 7824
0xca,0xff,0xa0,0xff,0xf7,0x02,0x20,0x01, 0xab,0xff,0x4b,0x06,0xfe,0xf7,0xc8,0xff, // 7840
0x12,0x00,0xe7,0xf9,0xd8,0x00,0xd9,0xfe, 0xb7,0x07,0xcf,0x09,0xd0,0xff,0xd9,0xfb, // 7856
0xb0,0x01,0xa8,0x01,0x14,0x00,0x4a,0xfe, 0x7f,0xff,0x9a,0xff,0xa7,0xff,0xc3,0x00, // 7872
0xd8,0xfe,0xe0,0xfe,0x81,0xff,0xfd,0xff, 0xf4,0x01,0xf5,0xfe,0x42,0xfe,0xd4,0xfc, // 7888
0x52,0x02,0xd8,0x01,0x03,0x03,0x27,0xfd, 0x45,0x05,0x54,0xfd,0x74,0xfb,0x91,0x01, // 7904
0x8a,0x00,0xcd,0xfb,0xb0,0x01,0x65,0xff, 0xd0,0xfe,0x91,0xfa,0xec,0xfd,0xe9,0xfc, // 7920
0xb1,0x01,0x90,0x06,0x8e,0x08,0x7f,0xfd, 0x6a,0xfd,0x05,0xff,0x24,0xff,0xb1,0x02, // 7936
0xbb,0xfd,0xa6,0x03,0xa4,0x00,0x8a,0x00, 0x3c,0x00,0xa8,0xfc,0x59,0xff,0x3c,0xfd, // 7952
0x3c,0xfc,0x04,0x01,0xed,0xfe,0xcc,0xfe, 0xe7,0x03,0x15,0xff,0x95,0xfd,0xa9,0x03, // 7968
0x84,0x01,0xbe,0x00,0xbc,0x01,0x48,0x03, 0xa3,0x02,0x54,0xf8,0xa9,0x05,0xcf,0xfe, // 7984
0xe1,0xff,0x92,0xfd,0xcc,0xff,0x49,0x00, 0x5d,0x02,0x96,0x01,0x26,0xff,0xbc,0x01, // 8000
0x04,0xfe,0x6f,0x00,0x25,0xfc,0xb2,0xfc, 0x4d,0x08,0x48,0x00,0xaa,0xff,0xfc,0xff, // 8016
0x07,0x01,0x44,0x02,0xdf,0x03,0x8c,0xfd, 0x58,0x00,0x65,0xfe,0x3a,0x00,0x0a,0x02, // 8032
0xe1,0xfe,0xb7,0x07,0x78,0xf3,0x46,0x01, 0x24,0x01,0x7d,0x03,0xcb,0x00,0xe0,0xfa, // 8048
0x97,0xf7,0x22,0xfd,0x16,0x01,0x8d,0xfd, 0xbd,0x01,0x2e,0xfb,0x8d,0xff,0x8d,0xfe, // 8064
0x0d,0x02,0xc9,0xff,0xf2,0xff,0xa6,0x04, 0x05,0xf5,0xbe,0x03,0x8e,0x00,0x78,0x00, // 8080
0xcc,0xf8,0x85,0xfe,0xb4,0x01,0x51,0x01, 0x17,0xff,0xb1,0x02,0xb7,0x0a,0xc9,0xff, // 8096
0xbd,0xfe,0xe1,0xfb,0x5e,0xfe,0x7c,0x03, 0xa0,0xfe,0x29,0x00,0x5b,0xfb,0x76,0xf6, // 8112
0x9c,0x00,0xdc,0xfe,0x0f,0x01,0xf2,0xfe, 0xb1,0x00,0x8b,0x00,0xf3,0x02,0x8d,0x00, // 8128
0x3b,0xfd,0x1a,0xff,0xbc,0x05,0xca,0xfe, 0x4d,0xfe,0xf3,0x02,0xb8,0xff,0x34,0x02, // 8144
0xdf,0x01,0x28,0x00,0x50,0x00,0x17,0x02, 0xf4,0x00,0x61,0x00,0xcd,0x00,0xd5,0xfe, // 8160
0x71,0x00,0x32,0x00,0x51,0xff,0x54,0x00, 0xc4,0x01,0x94,0x00,0x21,0x00,0xf5,0xfe, // 8176
0xa0,0x00,0xcc,0xfe,0xd9,0xff,0xc4,0xff, 0xa1,0x0f,0x81,0x00,0x9f,0x00,0xb5,0xf5, // 8192
0xc2,0xfe,0x45,0x00,0xbc,0xff,0x8f,0x00, 0xfc,0xff,0x4a,0x00,0x82,0x00,0xdb,0xff, // 8208
0xf0,0xff,0xfc,0xfd,0x88,0xf6,0xe4,0x00, 0xdc,0xff,0xde,0xff,0x87,0xff,0xd1,0x00, // 8224
0x85,0xff,0x1c,0x00,0xd7,0xff,0x71,0xfe, 0x01,0xff,0x8f,0xff,0x95,0xff,0x05,0x01, // 8240
0x1b,0x00,0x77,0xff,0xd8,0x00,0xab,0x00, 0x6a,0x05,0x9b,0x01,0xd8,0xff,0xbc,0xff, // 8256
0x28,0xff,0x3c,0xfe,0xff,0xff,0xe9,0xff, 0xb4,0x00,0xac,0xff,0x57,0x00,0x1a,0x00, // 8272
0x3c,0x00,0x6c,0x02,0xc6,0xff,0x02,0x07, 0x5f,0xfd,0xbc,0x00,0x4b,0xfd,0x52,0xff, // 8288
0xe7,0x01,0x82,0xff,0x87,0x00,0xa8,0x00, 0x79,0x05,0x43,0x03,0x10,0x00,0x4f,0xff, // 8304
0xea,0xff,0x8c,0xfe,0xc7,0x03,0x97,0x00, 0x43,0x00,0x64,0x01,0x83,0xff,0x43,0xff, // 8320
0xd7,0xff,0x30,0x01,0x87,0x00,0xd8,0xff, 0xeb,0xfe,0x40,0x00,0x98,0x07,0x43,0xfe, // 8336
0x34,0x00,0xf4,0xff,0x59,0xff,0xb1,0xff, 0x10,0x00,0x1e,0x00,0xdd,0xff,0xfd,0xff, // 8352
0x25,0xff,0x4b,0x00,0xa4,0x00,0xd8,0xff, 0x22,0x00,0xf2,0xff,0xb5,0x00,0x4c,0x00, // 8368
0xdc,0x00,0x89,0x01,0x7b,0x00,0x06,0x0a, 0xd4,0xff,0x2f,0xfe,0xdf,0xff,0x5a,0x00, // 8384
0x8e,0xf1,0x09,0x00,0x7e,0xfe,0x9a,0xff, 0xaf,0x01,0x10,0x01,0xb0,0x01,0x8d,0x00, // 8400
0x6a,0x00,0x30,0xfe,0x7a,0x00,0x5e,0x00, 0xec,0xfe,0x32,0xfe,0xcd,0xff,0x71,0xfe, // 8416
0xd1,0xff,0xe0,0x01,0x30,0xff,0x2d,0x01, 0xdc,0xff,0xf0,0xfe,0x4b,0x00,0xf3,0x02, // 8432
0xd6,0x01,0x3d,0xfd,0xc0,0xfe,0x6c,0xff, 0x9b,0x01,0xc9,0x00,0x88,0x01,0x72,0xfe, // 8448
0x70,0xff,0xc1,0xff,0x9b,0xfe,0x31,0x00, 0x7a,0x01,0xb1,0xff,0x2a,0xff,0x14,0x01, // 8464
0x50,0x00,0x63,0xfe,0x2c,0x00,0x0b,0x00, 0xca,0x00,0xa0,0xfc,0x5e,0xfb,0x87,0x00, // 8480
0x5a,0x00,0x5d,0x02,0x02,0x02,0x0d,0x00, 0x80,0x00,0x68,0x00,0x28,0xff,0xf0,0xff, // 8496
0x84,0xff,0x20,0x01,0x5c,0xff,0x3e,0xfe, 0x97,0xff,0x44,0x00,0x33,0x00,0xdc,0xfe, // 8512
0x32,0xff,0x30,0xff,0xb6,0xff,0xc5,0xff, 0x41,0xff,0x01,0xff,0xb3,0x00,0x94,0xff, // 8528
0x0c,0x01,0xc4,0xff,0x2b,0x00,0xa6,0xff, 0x15,0xfe,0x4a,0x00,0x49,0x00,0x9e,0x00, // 8544
0xce,0x00,0x0d,0x00,0x86,0x00,0x0b,0x00, 0x02,0x01,0xfe,0x00,0x47,0xfe,0xbb,0xff, // 8560
0xf9,0xff,0xca,0xff,0xb6,0x00,0xfd,0x00, 0x35,0xff,0x77,0x01,0xb1,0xfe,0x61,0x01, // 8576
0x6b,0x00,0xad,0xff,0x26,0x02,0x48,0x00, 0x70,0xff,0xbe,0xff,0x84,0xff,0x1e,0xfe, // 8592
0xb6,0x00,0x17,0x01,0x25,0x00,0xbd,0xfe, 0x3c,0x00,0x2b,0x00,0xe8,0xff,0x28,0xff, // 8608
0x2e,0xfd,0xfa,0xfb,0xbc,0xff,0xe6,0xfe, 0xa3,0x00,0x25,0xff,0xfc,0xff,0x19,0xfe, // 8624
0xa7,0x02,0x2d,0x01,0xa9,0x00,0x82,0x00, 0x79,0xfe,0x05,0x01,0x7e,0xff,0x01,0x01, // 8640
0xfe,0xfc,0x62,0x00,0x94,0xff,0xcb,0x03, 0x1d,0x01,0x8d,0xff,0x90,0x00,0xea,0xff, // 8656
0x42,0xfb,0x27,0x00,0xd3,0xff,0x4b,0x00, 0x2a,0x00,0x99,0x00,0xed,0xfe,0xb1,0xff, // 8672
0x63,0x00,0x38,0x01,0x80,0xff,0x5f,0x00, 0xe7,0xfe,0xe2,0xfe,0x06,0x02,0xa7,0xff, // 8688
0x8c,0xff,0xce,0x00,0xc6,0x01,0x7b,0xff, 0x6c,0x00,0xb3,0xff,0xde,0xfe,0x3d,0xff, // 8704
0xa8,0x01,0xc2,0xfe,0x62,0xff,0x31,0xff, 0x84,0xff,0xd6,0xfe,0x37,0xff,0xf3,0xff, // 8720
0xe8,0x00,0x0d,0xff,0x7b,0xff,0x97,0xfb, 0xd8,0xff,0x6c,0x00,0x9b,0x00,0x7f,0xff, // 8736
0x75,0x00,0x73,0xff,0x8b,0x00,0x8b,0x05, 0x16,0xff,0x7c,0xff,0xd0,0x00,0xb6,0xff, // 8752
0x77,0xff,0xd6,0xfd,0xbf,0xf0,0x8e,0xfe, 0x4c,0x01,0xd8,0x01,0xc6,0x00,0x16,0x00, // 8768
0x7a,0xff,0x20,0x00,0x8b,0xff,0x10,0xff, 0x99,0x00,0x3e,0x00,0xb3,0x00,0xb6,0xfd, // 8784
0x0d,0xff,0x6d,0xff,0x94,0x02,0xa5,0xff, 0x2b,0xff,0x17,0xfc,0x7e,0xff,0xe6,0xfb, // 8800
0xce,0xff,0x6c,0x00,0x0a,0x00,0x35,0x00, 0xe2,0xff,0xb3,0xff,0x28,0x00,0xa2,0xff, // 8816
0xbc,0xff,0xbf,0xff,0x50,0x00,0x98,0x00, 0x63,0xff,0xa9,0xff,0x65,0xff,0x9e,0x00, // 8832
0xab,0x01,0xdf,0x00,0x43,0xfe,0xf7,0xff, 0x76,0xff,0x25,0x03,0xc1,0xff,0xef,0xff, // 8848
0x32,0xff,0x6b,0x04,0xf4,0xfb,0x1a,0x00, 0x96,0xff,0x94,0xfe,0x6d,0x01,0xaf,0x01, // 8864
0x62,0xff,0xd7,0xff,0x65,0x00,0x33,0xff, 0x70,0x00,0xb7,0x00,0x4b,0x00,0xb5,0x01, // 8880
0x49,0x01,0x0f,0xff,0x8d,0xff,0xf4,0xfe, 0x8d,0xfe,0x81,0xee,0x93,0xff,0x35,0xff, // 8896
0xbe,0xff,0x18,0xff,0x94,0x00,0x9b,0xfd, 0xcd,0x11,0x54,0x04,0x37,0x04,0xe4,0xff, // 8912
0x9a,0xfe,0xfe,0xfd,0x4e,0x01,0xde,0x05, 0x13,0xff,0x16,0x00,0x54,0x00,0xcc,0x0c, // 8928
0xc2,0x00,0x1f,0xff,0x6c,0x00,0xaa,0xff, 0x2e,0xed,0xaa,0x00,0x3d,0xfd,0x47,0x00, // 8944
0xc9,0xff,0xb9,0x04,0x65,0xff,0xc4,0xfe, 0xa1,0xff,0x2d,0xfe,0xef,0xff,0x0f,0x00, // 8960
0xa3,0xff,0x4b,0x00,0x9e,0x04,0x2e,0x02, 0x79,0xfe,0x0b,0x00,0x57,0x00,0x7b,0xfe, // 8976
0xfb,0x00,0xaf,0x00,0x05,0xfd,0x39,0x00, 0xd9,0x04,0x96,0x00,0xab,0xff,0x33,0x00, // 8992
0x1e,0x02,0x46,0x05,0xc2,0xff,0x00,0x01, 0xad,0xfc,0x89,0x02,0x41,0xff,0x72,0xfe, // 9008
0x7d,0xfe,0xfe,0xfd,0x82,0xfe,0xb1,0x02, 0x04,0x02,0xad,0x02,0xa7,0xfd,0x65,0x01, // 9024
0x6b,0xfd,0xd0,0x07,0x88,0xfd,0x61,0x03, 0x47,0x02,0xca,0x07,0x8d,0x00,0x22,0x02, // 9040
0x49,0xff,0x18,0x01,0x2e,0x00,0x54,0x02, 0x77,0x01,0x76,0x02,0x2f,0x02,0xeb,0xfe, // 9056
0x43,0x02,0x6d,0xfa,0xde,0xff,0xa2,0x06, 0x37,0x07,0xf5,0x00,0x5d,0xfc,0x8e,0x01, // 9072
0x71,0x00,0xcd,0xff,0x8c,0x01,0x11,0xff, 0x15,0xfe,0xe2,0xff,0x7b,0x01,0xb5,0xfe, // 9088
0x75,0xff,0x7b,0xfd,0x74,0xff,0x65,0xfd, 0x79,0xfe,0xf6,0xff,0xd5,0xfd,0x6a,0x04, // 9104
0x31,0x02,0x8f,0x00,0x55,0xff,0x97,0xfd, 0x4b,0xf7,0x62,0xfd,0xa3,0x07,0xaf,0xfc, // 9120
0x94,0x01,0x9f,0xf7,0x9b,0x03,0xe4,0x02, 0x5a,0xf9,0x25,0xfb,0xd4,0x04,0x12,0xfe, // 9136
0x15,0xfd,0x39,0xfd,0xe4,0x01,0xae,0x03, 0xec,0x01,0xd9,0x01,0x63,0xfd,0x41,0xfd, // 9152
0xf6,0x00,0x0d,0xff,0x05,0x02,0x0f,0xfe, 0x17,0xfb,0xdb,0xff,0xbe,0xfd,0x40,0xff, // 9168
0xee,0xfe,0x52,0xff,0x23,0xfe,0xd8,0x02, 0x5e,0xfe,0xb1,0xff,0x66,0xfe,0x64,0x06, // 9184
0x01,0x01,0x84,0xf6,0x2d,0x01,0xb9,0x00, 0xe4,0x00,0xc1,0xfb,0xe4,0xf9,0x86,0x01, // 9200
0x5c,0x02,0x52,0x02,0x6d,0xfd,0x8c,0xff, 0xc5,0xff,0x60,0x00,0xdd,0xfd,0x34,0xfc, // 9216
0xdb,0xff,0x02,0x01,0x52,0xfe,0x38,0xfe, 0x9f,0x02,0x81,0x01,0x1b,0x02,0xc1,0x01, // 9232
0xb4,0x01,0x20,0x01,0x26,0xff,0xcf,0x01, 0x06,0x02,0x03,0xfd,0xe8,0x00,0x0b,0xfa, // 9248
0x8f,0x00,0x04,0x01,0x60,0xfa,0x0e,0x01, 0x6d,0x01,0xd1,0xfe,0x4d,0x07,0x22,0xfc, // 9264
0x8d,0x01,0x9c,0xfe,0xe4,0x05,0xa4,0xfd, 0x23,0xff,0xd3,0xfe,0x26,0xfe,0x1e,0x02, // 9280
0xd0,0x02,0x0c,0x02,0xdf,0x01,0x83,0x01, 0xa1,0xfe,0xfa,0x08,0xdb,0xff,0xf1,0xf8, // 9296
0xb0,0xfd,0xbc,0xff,0x64,0x03,0x71,0xfe, 0x26,0x03,0x82,0xfd,0x96,0xff,0x8f,0xfc, // 9312
0x08,0xfd,0xc3,0xff,0x51,0x00,0x5e,0x01, 0x4f,0xff,0xee,0xfe,0x03,0xff,0x81,0x00, // 9328
0x95,0x00,0xef,0xfe,0xc7,0xfc,0xb7,0x07, 0xf6,0xfc,0x42,0x01,0x1b,0x00,0xe0,0xfe, // 9344
0x37,0xff,0xb6,0xff,0xdf,0x00,0x75,0xff, 0xb8,0x00,0x0c,0x03,0xaa,0x00,0xec,0x02, // 9360
0x87,0x00,0x9c,0xfb,0x44,0xff,0x28,0x02, 0x9d,0x03,0x32,0x02,0x1f,0x03,0x4c,0xff, // 9376
0xf8,0xff,0xcd,0xfe,0x62,0xff,0xab,0xfe, 0x51,0x00,0x3e,0xfa,0x0d,0x02,0x2c,0xfe, // 9392
0x07,0x00,0x1d,0x03,0x6b,0xff,0x72,0x05, 0x24,0xfa,0xcc,0xff,0xe2,0xfa,0xad,0xf8, // 9408
0x34,0x00,0x26,0x00,0xa6,0x00,0xac,0x04, 0x2e,0x05,0x4c,0xff,0xb9,0xfd,0x31,0xff, // 9424
0xed,0xfc,0x0c,0xfb,0x99,0xff,0x15,0x09, 0xd2,0xfd,0x79,0x01,0x79,0xff,0x92,0xfd, // 9440
0x33,0x01,0xe7,0x00,0x95,0xff,0xb2,0x00, 0x5c,0xff,0x27,0x00,0xbd,0x02,0xb5,0x00, // 9456
0xf5,0x03,0x7a,0x00,0x38,0x01,0x0a,0xff, 0x58,0xff,0x61,0x00,0xb5,0xfe,0x54,0xff, // 9472
0x4a,0xff,0xb7,0x00,0x6f,0x01,0xec,0xfe, 0xd5,0xfe,0xf0,0xfc,0x3a,0x06,0x21,0x00, // 9488
0xa8,0xfd,0xb0,0x00,0xcc,0x00,0x26,0x02, 0xf2,0xff,0xf6,0x01,0x63,0x01,0x62,0xff, // 9504
0x36,0xfd,0x56,0xfd,0xe8,0xff,0x48,0xfe, 0x8a,0xff,0x16,0x03,0xc2,0xfe,0x90,0xff, // 9520
0x4f,0x01,0x93,0xfe,0x63,0xfe,0xbf,0xff, 0x30,0x01,0x6c,0x01,0x2e,0x00,0x30,0xfe, // 9536
0xa1,0xfc,0x1c,0x04,0xe5,0xff,0x72,0x01, 0x50,0xfe,0x39,0x00,0x30,0xfe,0x45,0x0b, // 9552
0x1f,0x05,0xbe,0xfe,0xb7,0x03,0x5b,0xfd, 0x21,0x00,0xb0,0x00,0x0f,0x04,0x90,0xff, // 9568
0x1a,0x01,0x11,0xff,0xcf,0xfc,0x60,0x02, 0xa1,0xff,0x37,0xff,0x26,0x05,0x3b,0x00, // 9584
0xb7,0xff,0xfe,0xfe,0xd3,0x01,0x59,0xff, 0xd9,0x04,0x42,0x01,0x6a,0xff,0xb6,0x00, // 9600
0x3a,0xfd,0xfd,0xfe,0x94,0xff,0x1a,0xfe, 0x42,0xfe,0x50,0x00,0x79,0xff,0x18,0x00, // 9616
0xcf,0xfe,0xac,0xfd,0xa2,0xff,0x6a,0xff, 0xab,0x00,0xc2,0x02,0xee,0xfe,0xfd,0x00, // 9632
0x42,0x01,0x63,0x01,0x67,0xfd,0xec,0xff, 0x46,0xff,0x3d,0x01,0x11,0x02,0xf4,0xff, // 9648
0xd0,0x01,0xec,0x01,0x76,0xfd,0x6d,0x02, 0xe4,0xfc,0x4f,0x01,0x9a,0xfe,0xec,0x03, // 9664
0x77,0x00,0x16,0x04,0xa6,0xfc,0xba,0xfe, 0xba,0xfd,0x79,0x03,0xf0,0xff,0xd1,0x00, // 9680
0x55,0x00,0x24,0xff,0x46,0x00,0xa5,0x02, 0xaa,0x01,0x08,0x00,0xf4,0xff,0x90,0x00, // 9696
0x1d,0x00,0x9d,0xff,0x2b,0x00,0x9b,0xff, 0x80,0xfe,0x46,0xfe,0x96,0xff,0x9b,0xff, // 9712
0x5f,0x02,0x00,0xff,0x4d,0x03,0xee,0xfe, 0x18,0xff,0xa5,0xff,0xf5,0xff,0x47,0x02, // 9728
0x31,0x04,0xc3,0xff,0xb0,0x00,0xbe,0xff, 0x6b,0xfc,0x46,0x01,0xed,0xfe,0xf2,0xfe, // 9744
0x7a,0xff,0xc3,0xff,0x76,0xff,0x1e,0xfe, 0x5b,0x03,0xa3,0x00,0xd1,0xfe,0x4a,0x00, // 9760
0xa2,0x01,0xb4,0x02,0x56,0xfd,0xe7,0xff, 0x13,0x02,0x20,0x00,0xbb,0xfe,0x1e,0x00, // 9776
0xd3,0xff,0x0f,0xff,0xd2,0x05,0xd5,0x01, 0x34,0xff,0x2e,0x00,0x14,0x00,0x2c,0x01, // 9792
0x1e,0x00,0x33,0x01,0x19,0x01,0xc3,0x00, 0xdb,0x00,0xbe,0xfe,0x4d,0xff,0x49,0xff, // 9808
0x62,0x02,0x1a,0xff,0xf7,0xff,0x79,0x02, 0xf7,0x00,0x32,0xfd,0xcc,0xff,0x97,0xfc, // 9824
0x59,0x00,0x8b,0xff,0xfa,0xfe,0xcd,0x01, 0xd2,0xfd,0x42,0x04,0x7e,0xff,0x63,0xff, // 9840
0xa4,0xfe,0x6f,0xff,0x4b,0xff,0x32,0x02, 0xe9,0xff,0x06,0xff,0x50,0x01,0x4e,0x00, // 9856
0x0d,0x00,0xcd,0x00,0x28,0x00,0xf2,0xfd, 0x38,0xff,0x54,0x02,0x98,0xff,0x38,0x00, // 9872
0xe7,0x00,0xe4,0x01,0xf8,0x09,0x04,0x00, 0x68,0x00,0xa4,0xff,0x26,0x00,0xcf,0x00, // 9888
0x59,0x00,0xbd,0xff,0xe9,0xff,0x8f,0x00, 0x96,0xff,0x3a,0xff,0x1c,0x01,0x6f,0x03, // 9904
0xc1,0x00,0x90,0xff,0xcc,0xfe,0x5e,0xff, 0xac,0xff,0xf3,0x02,0x14,0xff,0xa7,0x02, // 9920
0x9f,0x00,0x0e,0x00,0x1e,0xff,0xb3,0xff, 0xe1,0x00,0x7e,0x00,0x17,0x00,0x57,0x00, // 9936
0x46,0x01,0x9c,0x00,0x95,0xff,0x40,0xff, 0x9a,0xff,0xe8,0xff,0xea,0xff,0x4f,0x00, // 9952
0xd7,0xfe,0x85,0xff,0x0c,0x02,0x56,0xff, 0x8c,0x00,0x8c,0xfe,0xa0,0x00,0xb5,0x00, // 9968
0xda,0x00,0xb1,0xfd,0x7e,0x02,0x62,0xff, 0x9e,0x00,0x60,0x00,0xfe,0xfd,0x00,0x01, // 9984
0xeb,0x00,0x56,0x00,0xed,0xff,0xa4,0xff, 0xac,0xfe,0x9e,0xff,0x16,0x00,0x4d,0xff, // 10000
0x50,0xff,0xf6,0xff,0x45,0xff,0x50,0xff, 0xc6,0xff,0x00,0x0d,0x61,0xff,0x0e,0x00, // 10016
0x12,0x00,0x8e,0xff,0x4e,0x00,0x0c,0x03, 0x76,0xf4,0x3d,0xfd,0x62,0xfd,0x9d,0xff, // 10032
0x41,0x01,0xb0,0xff,0x74,0xfe,0xb2,0xfd, 0xe9,0x00,0x84,0x00,0x35,0xff,0xf2,0xf6, // 10048
0x57,0xff,0xca,0xfe,0xcd,0xfd,0x07,0xff, 0x52,0x0e,0xbf,0xff,0x45,0x01,0xe0,0x00, // 10064
0x67,0xfe,0x96,0xfd,0xc8,0x00,0xc6,0x00, 0xb3,0xfe,0x80,0xff,0x01,0xff,0xdc,0xff, // 10080
0x04,0x00,0x6c,0x01,0xfa,0xfd,0x55,0xfe, 0x2d,0x00,0x61,0x00,0x37,0x00,0x32,0x00, // 10096
0x00,0x00,0x1a,0x00,0x61,0x03,0xf2,0xff, 0x1e,0xfe,0x94,0x01,0x3a,0x00,0x15,0x01, // 10112
0xeb,0x00,0xbd,0xff,0x42,0xfd,0x9c,0x04, 0xa9,0x00,0x6a,0x00,0x77,0x00,0xe1,0xfd, // 10128
0xfd,0xfd,0xee,0xfe,0x16,0xff,0x08,0x00, 0xb7,0xfe,0xb4,0x02,0x2b,0x01,0x1c,0x03, // 10144
0xe4,0xfa,0xd2,0x00,0x45,0x00,0x21,0x04, 0x30,0xfe,0xbc,0x00,0x20,0x00,0x1d,0x02, // 10160
0x85,0xfe,0xb3,0xff,0xa1,0xfe,0x7e,0x00, 0xef,0x02,0xaa,0x01,0x81,0x04,0x4b,0x00, // 10176
0xb6,0x02,0xb0,0xff,0x15,0x00,0xc1,0xff, 0x96,0xff,0x78,0x01,0xdc,0x00,0x9a,0x01, // 10192
0x97,0x02,0x63,0xfc,0x16,0x01,0xa7,0xfb, 0x1f,0xff,0xbf,0xfe,0x87,0xff,0x4c,0xfc, // 10208
0xe1,0xfe,0xc9,0xf7,0xbe,0x00,0xe6,0xfd, 0x09,0x00,0xe0,0xff,0x43,0xff,0x79,0xff, // 10224
0x7d,0xff,0x43,0xff,0xdf,0x04,0x30,0xfd, 0x75,0x00,0x0d,0x00,0x7e,0xff,0x5b,0xfd, // 10240
0x6b,0x00,0x53,0x00,0x9a,0x01,0xa6,0x00, 0x91,0xff,0xbd,0xff,0x50,0xff,0x6e,0x00, // 10256
0x8e,0xfe,0x33,0xfb,0x51,0x02,0x68,0x02, 0xb6,0xfe,0x7f,0x05,0x5d,0xfa,0x17,0xff, // 10272
0x26,0xff,0xcd,0xfe,0x53,0x00,0xf8,0xfe, 0x05,0x00,0x60,0xfe,0x8e,0xfc,0x52,0x00, // 10288
0x92,0x00,0xde,0xff,0xcf,0xff,0x8f,0x01, 0x89,0x01,0x03,0x01,0xb8,0xff,0x6d,0xff, // 10304
0x1b,0x00,0x8f,0x00,0xe1,0x04,0xb8,0xfe, 0xfa,0xff,0x9c,0xff,0xfe,0xff,0x15,0x03, // 10320
0x0b,0x00,0xbd,0xff,0x16,0x00,0x17,0x00, 0x01,0xff,0xb8,0xfd,0x83,0xff,0x98,0xf9, // 10336
0x2e,0x00,0x87,0x01,0x49,0xff,0xb6,0xfd, 0x3c,0x04,0x70,0x03,0x61,0x00,0x5d,0x01, // 10352
0x3a,0x00,0x03,0x02,0x70,0xfe,0x2b,0xff, 0x24,0x00,0x59,0xff,0xb2,0x02,0xf4,0xff, // 10368
0xce,0x02,0xae,0x03,0xc2,0xff,0xd3,0xfd, 0x57,0x00,0xff,0x00,0xf5,0xff,0xe1,0xff, // 10384
0xe9,0x02,0xe3,0xff,0x13,0x00,0xb6,0xff, 0x1a,0xfd,0xb4,0xfc,0x2f,0x00,0xd4,0xff, // 10400
0xb2,0x00,0x53,0xfb,0x4e,0xfc,0x04,0x00, 0x2f,0x00,0xcf,0x00,0x58,0x01,0x36,0x00, // 10416
0x35,0xfe,0x5d,0xfe,0x59,0xff,0xd8,0xff, 0x9f,0x01,0xce,0xfe,0x5d,0x00,0xb5,0xfe, // 10432
0x61,0x00,0x45,0xfc,0x7f,0xff,0x42,0xfc, 0x13,0x02,0x72,0xfe,0xec,0xfe,0xcd,0x00, // 10448
0xdc,0xff,0xe4,0xfe,0x07,0xff,0xf2,0xff, 0xb4,0xfe,0xbb,0x04,0x40,0x03,0x6e,0xfa, // 10464
0x86,0xef,0x74,0xfc,0xb6,0x0d,0x20,0x00, 0xdb,0xff,0x49,0x00,0x3a,0xff,0x2c,0x01, // 10480
0x4e,0x01,0x80,0x01,0x48,0xfe,0xc4,0x01, 0xad,0x00,0x7f,0x00,0x1b,0x00,0x2d,0x00, // 10496
0xb4,0x03,0x33,0x01,0x3d,0x01,0x60,0xfd, 0x65,0xfc,0x78,0x00,0xaa,0xff,0xa0,0x00, // 10512
0x80,0x04,0x87,0xfe,0x28,0xfd,0x68,0x00, 0x68,0x00,0x52,0x13,0x1f,0xff,0x0b,0x00, // 10528
0xd8,0x01,0xc1,0x0c,0xe7,0xf9,0x13,0x00, 0xa8,0xff,0xe6,0xff,0x90,0xff,0x59,0xff, // 10544
0x0e,0x02,0xb5,0x00,0x3c,0x01,0x36,0x00, 0x8f,0xfe,0x0e,0x00,0x29,0xff,0xa3,0x02, // 10560
0x2a,0x11,0xe4,0xff,0x2b,0x00,0x8b,0x00, 0xe6,0xff,0x91,0x00,0xee,0x00,0x3f,0xff, // 10576
0xfb,0xff,0xf0,0x00,0xa0,0x03,0x58,0xfa, 0x8b,0x00,0xa4,0x0a,0xad,0xff,0x17,0x00, // 10592
0xc6,0xfe,0x9a,0x01,0x6e,0x0d,0xfb,0xfe, 0x96,0xfc,0x70,0x00,0x48,0xff,0x7b,0x00, // 10608
0x39,0xff,0x59,0x00,0xeb,0xfe,0x7c,0x00, 0x23,0x00,0x71,0xfe,0xce,0xfe,0x5f,0x01, // 10624
0xc2,0xfe,0xff,0xfe,0x4e,0xff,0xec,0xfe, 0x86,0xfb,0xce,0xfc,0xf1,0x00,0xe3,0xfc, // 10640
0x5f,0xfa,0xdd,0x04,0x2b,0xff,0xc4,0x18, 0xcd,0xff,0x66,0xff,0x7a,0x00,0x5a,0x00, // 10656
0x88,0xff,0x64,0x00,0x35,0xf9,0xf2,0x02, 0x8a,0xff,0xfe,0x03,0xf5,0xf6,0x07,0xff, // 10672
0xbb,0x00,0x76,0x00,0x9c,0x01,0xa9,0xfd, 0xd1,0x00,0xe5,0x00,0xe1,0xfe,0x74,0xfc, // 10688
0x25,0x01,0xca,0xff,0x04,0xfe,0xc0,0xff, 0x7a,0x0e,0x6b,0xf9,0xde,0xfc,0x24,0x05, // 10704
0x32,0x02,0xc0,0x00,0xcc,0xfe,0x8b,0xfd, 0x80,0x00,0x48,0xff,0x10,0x01,0x77,0x00, // 10720
0x76,0xff,0x3d,0x0c,0x87,0x0a,0xc1,0x00, 0xc5,0xfc,0xa2,0xfb,0xb6,0xfc,0xb6,0xfe, // 10736
0x7a,0x02,0x46,0x01,0x72,0xfe,0x65,0x00, 0x22,0x01,0x8d,0xff,0x90,0xff,0xa7,0xf8, // 10752
0x5f,0xf7,0x6f,0xfd,0x64,0xfe,0xa4,0xfb, 0xd7,0xff,0x34,0x01,0xae,0x01,0x6d,0xfe, // 10768
0xa5,0x01,0x16,0x02,0xe6,0xfe,0x4a,0x00, 0x8e,0x00,0x36,0xfc,0x61,0x04,0xfc,0xff, // 10784
0xbd,0x00,0x95,0xff,0x73,0xfc,0xd1,0x02, 0x8c,0xff,0x04,0x02,0x46,0xff,0x62,0x01, // 10800
0xb3,0xff,0x2f,0x00,0xbe,0xfd,0x0b,0xff, 0xa6,0x00,0x6f,0xfe,0xb2,0x01,0xad,0x00, // 10816
0x20,0x01,0xa6,0x04,0xfa,0x08,0x29,0xf9, 0x28,0x00,0x44,0xff,0xcb,0x03,0xe8,0xff, // 10832
0xd6,0x00,0x59,0x03,0x01,0xfb,0x20,0x00, 0x0b,0x00,0x8f,0x05,0x59,0x05,0x5d,0xf1, // 10848
0x22,0xfa,0xfe,0xff,0x3f,0x02,0x86,0xfd, 0xec,0xff,0x75,0xf7,0x62,0xff,0x24,0x01, // 10864
0x6a,0x00,0xff,0xff,0x7a,0x02,0x03,0x07, 0x88,0xfe,0x29,0x00,0x15,0x00,0x17,0x03, // 10880
0x5d,0xff,0x19,0x01,0x9f,0x00,0x53,0x00, 0x82,0xff,0xa6,0x05,0x92,0x02,0xd6,0x02, // 10896
0x58,0x00,0x83,0xff,0xc2,0xff,0x00,0x02, 0xe8,0xfd,0xdc,0x02,0x40,0xff,0xd7,0xfc, // 10912
0xa5,0x00,0xbf,0xff,0x86,0x01,0x84,0x00, 0x16,0x00,0x08,0x00,0xd3,0x03,0xdc,0x00, // 10928
0x2f,0xfb,0xa0,0xfd,0x39,0xff,0x3e,0xff, 0x27,0x02,0x92,0xfe,0x4b,0x01,0x55,0xff, // 10944
0x93,0x03,0x37,0xfe,0x0e,0x00,0xe5,0x00, 0x28,0xfe,0x5e,0x01,0x53,0x00,0xe7,0xf9, // 10960
0xc2,0xfd,0xbe,0xfe,0xef,0xfd,0x85,0xfe, 0xaa,0x04,0xcb,0xff,0x0c,0x02,0x8d,0x01, // 10976
0xab,0x03,0x94,0xf9,0x0f,0xf7,0xf7,0x00, 0x5d,0x02,0x13,0x02,0xfb,0x02,0x7c,0xfe, // 10992
0x36,0x05,0xf8,0x00,0xc9,0xff,0x9c,0xfe, 0x96,0x03,0x0c,0x05,0xe7,0x09,0xec,0xfe, // 11008
0xfc,0xfb,0x97,0xf9,0xba,0xfd,0x85,0xfc, 0x09,0xfe,0x0d,0x01,0x48,0xff,0x2b,0x02, // 11024
0x52,0x00,0x31,0xfd,0x97,0xfe,0x05,0xf7, 0x04,0xf4,0x25,0xfe,0x10,0xff,0x76,0xff, // 11040
0x76,0x01,0xc5,0x01,0x32,0xfe,0x38,0x01, 0x47,0x02,0x70,0x03,0x43,0xfe,0x89,0x04, // 11056
0xf3,0x02,0xa4,0xfc,0xf7,0x06,0xb5,0xff, 0x34,0x00,0xf9,0x02,0x84,0xfb,0xd0,0x06, // 11072
0x6c,0xff,0x25,0xff,0x2d,0x02,0x0e,0x00, 0x15,0x00,0xdc,0xff,0x6d,0xff,0x0d,0x02, // 11088
0x8a,0xfe,0xdc,0xff,0x34,0x01,0xfe,0xfd, 0x70,0x00,0xe1,0x07,0x4d,0x02,0x93,0xf9, // 11104
0xcd,0x03,0x52,0xfe,0xa3,0x04,0x0d,0xff, 0xba,0xfe,0xa0,0x02,0x34,0xfa,0x95,0x03, // 11120
0x69,0xfe,0xd7,0x04,0x38,0x04,0x31,0xfa, 0xcf,0xf7,0xb7,0xfe,0x06,0x02,0x74,0xfb, // 11136
0x05,0xfc,0xa6,0xf8,0x2f,0x00,0x7f,0x01, 0xaa,0x00,0x5d,0xfe,0x46,0x00,0xc0,0x0b, // 11152
0x0d,0xfc,0x6d,0xff,0xa7,0x00,0x93,0x00, 0x8b,0xff,0x9d,0x01,0x9b,0xfe,0x36,0x00, // 11168
0x8d,0xfe,0x9a,0x06,0x84,0x04,0xd3,0x03, 0x19,0x00,0x5f,0xfd,0x32,0xfc,0xb5,0x05, // 11184
0x59,0xfe,0xb7,0x00,0xf7,0xfe,0xc6,0xfc, 0xbf,0x00,0xa2,0xfd,0x20,0x04,0xd3,0x00, // 11200
0x0f,0x00,0x86,0x01,0xdf,0x00,0x61,0x00, 0x5b,0xf2,0xa7,0xf8,0x43,0x00,0xe3,0x01, // 11216
0x65,0xff,0xff,0xfd,0x1b,0x01,0x83,0x01, 0xe0,0x00,0x02,0xff,0xbc,0x01,0xac,0xff, // 11232
0x83,0x01,0x4b,0xff,0x7a,0x00,0xf5,0xfe, 0xbd,0xff,0xc3,0xff,0x25,0x01,0xa3,0x03, // 11248
0x75,0x00,0xf7,0x00,0x70,0x00,0x92,0x00, 0xda,0xfe,0xde,0xff,0x03,0x01,0xc4,0xfc, // 11264
0x30,0x00,0x92,0x00,0xa2,0xff,0x44,0x00, 0x65,0x00,0xaf,0xfe,0x0c,0x08,0xb1,0x00, // 11280
0xd9,0xfe,0x88,0xff,0x65,0xff,0xb9,0xff, 0x63,0xff,0x49,0xff,0xcf,0xff,0xbf,0x01, // 11296
0x85,0x00,0x60,0xff,0x3f,0xfe,0xca,0x02, 0xb8,0x07,0xf7,0x00,0x71,0xf8,0xe2,0x00, // 11312
0xb5,0xff,0x99,0x02,0x8a,0xff,0x10,0x04, 0xc5,0xff,0x4f,0x00,0x75,0xff,0xad,0x00, // 11328
0x5a,0x00,0x91,0x00,0xb7,0xff,0x92,0x00, 0x38,0xff,0x9f,0x00,0x7c,0x00,0x40,0x00, // 11344
0x0d,0x01,0x09,0x00,0x44,0xff,0xc4,0xff, 0x04,0x00,0xa1,0x01,0x95,0x01,0x8b,0x00, // 11360
0xd8,0xff,0xbb,0xfb,0xde,0x00,0xcf,0xff, 0xe7,0x01,0xd4,0xfb,0x26,0x02,0xf8,0x01, // 11376
0xec,0xff,0xdb,0x00,0xbc,0xfe,0x20,0x00, 0x69,0x00,0xba,0xfe,0x26,0x00,0x60,0x00, // 11392
0xfe,0xff,0xf1,0xfe,0x95,0x00,0xf0,0xfe, 0xb6,0xfc,0x05,0xff,0x4f,0xff,0xb6,0xff, // 11408
0x90,0x00,0xf1,0x06,0xc4,0xff,0x8c,0xfe, 0x05,0x00,0x7f,0x00,0x30,0xff,0xe7,0x02, // 11424
0x32,0xf7,0xb5,0xfb,0xed,0xfa,0xd5,0xff, 0xd5,0x00,0xad,0xff,0xc0,0xfb,0x66,0xf9, // 11440
0x44,0x01,0x2e,0x00,0x8d,0xff,0xa7,0xf9, 0x99,0x00,0x08,0x00,0xf0,0xfe,0xa1,0xff, // 11456
0x17,0x07,0x22,0xff,0xef,0x01,0x1d,0x01, 0xc5,0xff,0x5b,0xf9,0xf8,0xfe,0xc1,0xff, // 11472
0x2e,0x02,0x9c,0x00,0x72,0x00,0x4c,0x02, 0x92,0x03,0x67,0xff,0xc1,0xfb,0x32,0xfa, // 11488
0xec,0xff,0x37,0xff,0x38,0x00,0x57,0x01, 0x33,0x00,0xf8,0xff,0xe1,0x01,0x8e,0xff, // 11504
0x5b,0xfa,0xe7,0xfa,0x7a,0x04,0xdf,0x00, 0x63,0x05,0xb8,0xfe,0xae,0x01,0x65,0xfe, // 11520
0xf3,0x02,0xfd,0x02,0x4a,0x05,0xf4,0x01, 0xc6,0x01,0x3e,0x01,0xce,0xfc,0x2f,0x01, // 11536
0x8f,0xfd,0x8b,0x00,0x0a,0x08,0xe9,0xfe, 0x77,0x00,0x01,0xfe,0x2d,0x01,0xd9,0xfe, // 11552
0x83,0x01,0x9a,0xff,0x4e,0x00,0x30,0x00, 0x39,0xfd,0x32,0xfc,0x93,0xfb,0x7b,0xfd, // 11568
0x88,0xfe,0x30,0x01,0x48,0xfe,0xf8,0x02, 0x8e,0x00,0x61,0xfd,0x0e,0xff,0xa7,0xfd, // 11584
0xb3,0xff,0x83,0x03,0xff,0xff,0xdb,0x00, 0xde,0x01,0x54,0x01,0x22,0xff,0xe7,0x00, // 11600
0xbb,0xfd,0xab,0x01,0x20,0x02,0xcb,0xff, 0x15,0xff,0xca,0x02,0xa2,0xfd,0x33,0x00, // 11616
0x0e,0xfc,0x79,0x02,0xf2,0xfd,0xe7,0x03, 0x71,0x01,0xdf,0x00,0x69,0xfd,0x3a,0x01, // 11632
0xb7,0xff,0x9d,0x05,0x24,0xff,0x40,0x02, 0x22,0x02,0xc5,0xfe,0x2f,0x03,0x97,0x02, // 11648
0x66,0x01,0x4c,0xff,0x8e,0xfe,0xb2,0x03, 0x49,0x03,0x4f,0x00,0x24,0xfe,0xbe,0x01, // 11664
0x73,0xfd,0xa1,0xfd,0x81,0xff,0x5e,0xfe, 0x6f,0x01,0x37,0xfc,0xcc,0x04,0xe7,0xfc, // 11680
0x69,0xfe,0x6e,0xfd,0x89,0x01,0x32,0x05, 0xe3,0x0a,0xf6,0x00,0x3a,0x01,0xad,0xff, // 11696
0x75,0xfe,0x77,0x05,0x33,0xff,0xd9,0xfe, 0x9e,0xff,0x68,0x00,0xd9,0xfe,0x40,0xfd, // 11712
0x7e,0x04,0xe5,0x02,0x52,0xff,0x50,0xff, 0xa6,0x01,0xa7,0x03,0x83,0xfc,0x30,0xff, // 11728
0x89,0x03,0x78,0xfd,0xcb,0xfb,0x47,0x01, 0x3e,0x00,0xbf,0xfe,0x62,0x0c,0x1d,0x01, // 11744
0xeb,0xfe,0x08,0xff,0xe2,0xfe,0xd1,0x03, 0xda,0xff,0x74,0x02,0xe7,0x00,0x71,0x01, // 11760
0x8f,0xff,0xeb,0xfd,0xbb,0xfe,0xb5,0xfe, 0xf6,0x00,0x2d,0xff,0xa3,0x01,0x58,0x02, // 11776
0xc9,0x00,0xf1,0xfd,0x7b,0xff,0x98,0xfb, 0x21,0xff,0x3c,0x00,0xa8,0xfe,0x4e,0x01, // 11792
0x10,0x04,0x69,0xf5,0x3d,0x03,0xd9,0x01, 0x8a,0x04,0x73,0x04,0x25,0x05,0xb7,0xfe, // 11808
0x01,0x00,0x04,0x00,0xf7,0xf9,0x9b,0xfd, 0x96,0x00,0x61,0x02,0xc2,0x02,0xc6,0x01, // 11824
0x1c,0xfd,0xff,0xfb,0x7f,0x00,0x27,0x02, 0xf6,0xfe,0x65,0x00,0xb4,0xfe,0xb1,0x04, // 11840
0x6c,0xfb,0xf4,0x00,0x88,0xff,0xd5,0xfd, 0x01,0x01,0x7c,0x02,0x25,0xff,0x9b,0x01, // 11856
0x69,0x02,0x63,0xfd,0xfa,0x02,0x4b,0xf7, 0x3a,0xfc,0x0e,0x05,0xd5,0x01,0x5f,0x02, // 11872
0xd5,0x00,0x9f,0xfe,0x8a,0xff,0x9f,0xfe, 0x5d,0xfb,0xf5,0xfc,0x4b,0x03,0xf3,0xfd, // 11888
0xcc,0xff,0xf7,0xff,0x8f,0xff,0x91,0xfd, 0xb5,0xfb,0x07,0xff,0x1c,0xfc,0x86,0x01, // 11904
0x79,0xfe,0x2a,0xfd,0x07,0x00,0x10,0xfe, 0x04,0x03,0xa7,0x04,0x85,0xf9,0xb4,0x00, // 11920
0x4c,0x00,0x60,0x01,0x8b,0x02,0x95,0xfc, 0x15,0x04,0xdc,0x00,0xcd,0xf7,0x9b,0x05, // 11936
0x43,0x03,0x0d,0xfd,0x9a,0x01,0xae,0x04, 0x4b,0xf9,0x09,0x00,0x70,0xfe,0x9f,0x02, // 11952
0x83,0x03,0x70,0xfe,0xc7,0x01,0x5c,0xf9, 0x1e,0x01,0xf1,0xff,0x8d,0xfe,0x81,0x00, // 11968
0x77,0x01,0x9b,0xff,0x2b,0x01,0x40,0x02, 0xe8,0x03,0x91,0xff,0xb4,0x02,0x3a,0xfa, // 11984
0x74,0x00,0x7c,0x03,0x1c,0x02,0x82,0xfc, 0x50,0x01,0x35,0x01,0xab,0xff,0x24,0x02, // 12000
0x8c,0x00,0x50,0x01,0xf5,0x00,0x9c,0xff, 0xd3,0x03,0x0e,0xff,0x25,0xfc,0x8d,0xfe, // 12016
0xef,0xfe,0xa2,0x00,0x5a,0x01,0x3b,0xff, 0x65,0x01,0x34,0x01,0xa7,0x02,0xd1,0x01, // 12032
0xfe,0xfd,0x4a,0x05,0x10,0xff,0x2a,0xff, 0x7d,0xfd,0x43,0xfc,0xde,0x00,0x23,0x02, // 12048
0x38,0x03,0x95,0x01,0x92,0x03,0x4e,0xfe, 0xa9,0x02,0xf6,0x00,0xe6,0xfa,0x7d,0xfe, // 12064
0x8c,0x01,0xda,0x01,0x38,0xf8,0x9b,0x01, 0x82,0x01,0xca,0x03,0xbd,0xff,0x7e,0x00, // 12080
0xf9,0xfb,0x1e,0x03,0xc6,0x00,0x99,0xfb, 0x7a,0xff,0xae,0xfd,0x88,0x00,0xc7,0x00, // 12096
0x2d,0x00,0x22,0x01,0xba,0xfd,0xd7,0x04, 0xdf,0x00,0xd9,0x03,0xaa,0xfe,0xeb,0x00, // 12112
0x25,0x00,0x15,0x03,0xcd,0xff,0x6b,0x02, 0x79,0xfc,0x93,0x02,0xcd,0x01,0x84,0x01, // 12128
0xce,0x00,0x99,0x00,0x37,0x00,0xfd,0xfe, 0x5a,0x08,0x2f,0xfd,0x2f,0xfe,0x9a,0x03, // 12144
0x80,0x02,0xbd,0x02,0x18,0xfd,0x72,0x00, 0x56,0xff,0x1c,0xf9,0x21,0x00,0x48,0xfb, // 12160
0xcf,0xff,0xb6,0xff,0xb5,0x00,0xed,0xf9, 0xce,0x00,0x00,0xfe,0x73,0x00,0x21,0xff, // 12176
0x59,0xfd,0xf0,0xff,0xe3,0xff,0x76,0x01, 0xdc,0x02,0x4c,0x00,0x99,0xff,0x5c,0xff, // 12192
0x3c,0xfb,0xf1,0xff,0xd5,0x05,0x95,0xff, 0xce,0xfe,0xa7,0xfc,0xe9,0x00,0xc1,0xff, // 12208
0xa9,0xfe,0xc8,0xfb,0x5a,0x02,0xe8,0x00, 0x4a,0xfe,0x85,0xff,0xf2,0x04,0x7d,0x00, // 12224
0xae,0xff,0x76,0x01,0x2f,0x00,0x41,0xff, 0x1a,0x00,0x34,0x00,0x45,0x00,0x3e,0xfc, // 12240
0x48,0xfc,0xf0,0xff,0xa6,0xff,0x4b,0xfe, 0xee,0xfb,0xb7,0xff,0x01,0x01,0xc4,0x00, // 12256
0x66,0xff,0xc2,0xff,0x61,0xfe,0x35,0x03, 0x43,0xff,0x92,0xfc,0x31,0x06,0x45,0x00, // 12272
0xbd,0x01,0xd3,0xff,0xf5,0xf8,0x3c,0x05, 0x74,0x01,0x23,0x00,0xf7,0xff,0xcc,0xfe, // 12288
0xf6,0xff,0x6c,0xff,0x0a,0x00,0xb1,0x00, 0x1f,0x00,0xdd,0x00,0x51,0xfd,0x25,0x00, // 12304
0xa7,0x00,0xbf,0x05,0x21,0x01,0xf2,0xff, 0x3a,0x02,0x41,0x01,0xbf,0xfe,0xdd,0x00, // 12320
0xe5,0x01,0x5d,0xfc,0x0f,0x04,0x8d,0xfc, 0xb7,0x00,0x84,0x00,0x38,0xfe,0xbf,0xff, // 12336
0x86,0x00,0xcb,0xff,0x34,0x02,0x2d,0xfe, 0xbb,0x05,0xeb,0xff,0xf0,0x01,0xd5,0xff, // 12352
0x0d,0x00,0xca,0xff,0x3e,0xff,0xa3,0x00, 0x61,0x00,0x77,0xff,0xe4,0xff,0x93,0xfa, // 12368
0x35,0x00,0xfd,0xfe,0x04,0x00,0x28,0x01, 0x82,0x00,0xfc,0xff,0xd1,0xfe,0x65,0x03, // 12384
0xd1,0xff,0x2e,0x00,0x50,0xff,0x38,0xff, 0x9b,0xff,0x5b,0x00,0x59,0xf7,0xf3,0xff, // 12400
0x4c,0x00,0xd0,0xff,0xee,0x00,0x19,0x00, 0x6a,0x00,0x81,0xff,0xf3,0xff,0xb4,0xfe, // 12416
0x48,0x00,0x9a,0x00,0xd3,0xfd,0x18,0xfe, 0xd5,0xf8,0x03,0x00,0xf1,0x06,0x3b,0xff, // 12432
0x60,0xff,0x54,0xfb,0x84,0x00,0x88,0xfa, 0x19,0xfe,0xc6,0xfe,0x2f,0x00,0x6e,0xff, // 12448
0x87,0x00,0x8a,0xff,0xe1,0xff,0x4f,0xff, 0x9a,0xff,0xc9,0xff,0xf3,0xff,0xd5,0xff, // 12464
0xab,0x00,0xdf,0x00,0x8b,0x00,0xbc,0xff, 0x43,0x00,0x51,0xff,0x35,0xfe,0x82,0x00, // 12480
0xed,0xff,0x39,0x06,0x93,0x00,0xd0,0xff, 0xdb,0xff,0xce,0x07,0x24,0xfd,0x7a,0xff, // 12496
0xa6,0xff,0xcc,0xff,0x51,0x02,0xa4,0xff, 0x62,0x00,0x0b,0x01,0xf7,0xfe,0x5c,0xff, // 12512
0xb6,0xff,0x54,0x00,0x87,0x00,0xe9,0x00, 0xfc,0x03,0x54,0x00,0xb6,0xff,0x06,0x00, // 12528
0xc5,0xfe,0xda,0xf2,0x57,0x00,0x54,0x00, 0xff,0xff,0x69,0xff,0xfc,0xfe,0x53,0xfd, // 12544
0xd5,0x0e,0xf3,0x02,0x8b,0x06,0x6e,0x00, 0x6f,0x00,0x2a,0xff,0x3b,0x02,0xae,0x04, // 12560
0xe8,0xff,0x64,0xff,0x54,0x00,0x81,0x09, 0x03,0x00,0x1c,0x00,0xcb,0x00,0xc3,0xff, // 12576
0xff,0xf4,0x39,0x00,0xd3,0xfd,0xb2,0xfe, 0xc3,0x00,0x02,0x06,0xd7,0x00,0x8f,0xff, // 12592
0xe2,0x00,0x3e,0xff,0x79,0x00,0x41,0x00, 0xb4,0xff,0x6f,0x00,0x41,0x06,0x82,0x04, // 12608
0x49,0x00,0x74,0x00,0x61,0xff,0x83,0xff, 0xfb,0xff,0x79,0x00,0x80,0xfb,0x0c,0x00, // 12624
0xfa,0x04,0x76,0x00,0x10,0xfd,0xf9,0xfe, 0xe7,0xfd,0xe4,0xff,0x69,0xff,0x44,0x00, // 12640
0x46,0x00,0x61,0xff,0xce,0xfe,0x4d,0xff, 0xcb,0xff,0xff,0x00,0xee,0x01,0x11,0xfe, // 12656
0xac,0x00,0x32,0x00,0x5c,0x00,0x79,0x00, 0x36,0x00,0x33,0x00,0xe2,0xff,0x28,0x00, // 12672
0xc3,0xff,0x88,0x00,0x81,0xfe,0x84,0xff, 0x6a,0x00,0x25,0x00,0xd1,0x00,0x9e,0xff, // 12688
0xd0,0xff,0x1a,0x00,0xce,0xfe,0x11,0x00, 0x94,0xff,0x2b,0x00,0xc5,0x12,0x16,0x00, // 12704
0xeb,0xfe,0xf0,0xff,0xae,0x00,0x13,0xff, 0x58,0x00,0xf4,0xfe,0xfc,0xff,0x04,0xff, // 12720
0x1b,0x02,0xfe,0xff,0xb9,0xfe,0x1e,0x00, 0xb7,0xff,0xf2,0xff,0x8c,0x01,0x35,0x00, // 12736
0x43,0x01,0x77,0xff,0x62,0x00,0xff,0xfd, 0xd5,0xec,0xa1,0xfe,0x5d,0x00,0xb0,0xff, // 12752
0xbd,0x00,0xaa,0xff,0xdd,0xfe,0xe9,0x00, 0xfe,0xfe,0xef,0x00,0xcf,0xff,0x92,0xff, // 12768
0xd5,0xff,0x87,0x00,0xbc,0xff,0xf6,0xff, 0xd1,0xff,0x64,0x00,0x02,0x00,0xf1,0xff, // 12784
0xe4,0xff,0x79,0x00,0x7b,0x00,0xbb,0x01, 0xdd,0xfe,0xbd,0xff,0x0a,0xff,0x7a,0x00, // 12800
0x95,0x00,0xb1,0xff,0xae,0x00,0xc5,0xff, 0x96,0x00,0x54,0xff,0x25,0x00,0x2a,0x00, // 12816
0x3f,0x00,0x20,0x00,0x59,0x13,0x5c,0xff, 0xbf,0x00,0x01,0x01,0x5c,0x00,0x8a,0x00, // 12832
0x8d,0x00,0x50,0x00,0x57,0x01,0x0b,0x01, 0x06,0x00,0x70,0xff,0x06,0x00,0x99,0x00, // 12848
0x3f,0xff,0x91,0x00,0xc3,0xff,0x80,0xff, 0x5e,0xff,0x1b,0x00,0xb5,0xff,0xed,0xff, // 12864
0x42,0x00,0xcb,0x00,0xd4,0xff,0x8e,0xff, 0x4d,0xee,0x76,0xff,0x2b,0x00,0x7a,0xed, // 12880
0xde,0xf1,0x4c,0x00,0x20,0x00,0xd1,0x01, 0x42,0x00,0xc4,0xff,0x22,0x00,0x6b,0x00, // 12896
0xd8,0xfe,0x9a,0x00,0xf7,0xfe,0x2b,0x01, 0xfd,0x00,0x2d,0x10,0x90,0xfc,0xea,0xff, // 12912
0x05,0xfe,0x9a,0x01,0xc0,0xf3,0xc9,0x08, 0x53,0xff,0x81,0x02,0x83,0x00,0x20,0x02, // 12928
0xd9,0xf9,0xb1,0x01,0x4f,0x01,0x58,0xfb, 0x6d,0xff,0xa1,0xff,0xa0,0x00,0x54,0xff, // 12944
0x82,0x02,0x7a,0xff,0x51,0xf4,0x71,0xfc, 0x55,0xf8,0x3b,0x03,0x14,0x01,0x8d,0x05, // 12960
0xa1,0x00,0x1a,0x00,0x03,0xff,0xd7,0x09, 0x81,0x08,0x9d,0x02,0xbd,0xfd,0x43,0x03, // 12976
0x70,0x00,0x39,0x01,0x19,0xfc,0xe8,0x02, 0xc6,0x00,0x86,0xff,0xdb,0xff,0xda,0xff, // 12992
0x05,0x01,0xe7,0x00,0x36,0x09,0xa5,0x01, 0xe3,0x03,0xea,0xfd,0x3e,0xfd,0xd0,0x00, // 13008
0x36,0x04,0xa9,0xfd,0xfb,0x05,0x6c,0xf6, 0x6e,0x01,0x24,0x00,0x41,0x01,0x0d,0xfb, // 13024
0x4f,0x02,0x23,0xfa,0x22,0x07,0x41,0xfb, 0x5d,0x00,0x33,0xff,0x11,0x02,0xb8,0x01, // 13040
0x81,0xf8,0xeb,0x00,0x47,0xfb,0xc1,0xfc, 0xb5,0xf9,0x6b,0xff,0x2a,0x04,0xe8,0x00, // 13056
0xf0,0x00,0x58,0xfe,0x9a,0xff,0x80,0xfe, 0x09,0x01,0x0b,0xfe,0xbe,0x01,0xff,0x02, // 13072
0x07,0xfc,0x17,0x02,0x70,0x00,0x40,0xfd, 0x5e,0x00,0x41,0xff,0xbc,0xfd,0x44,0x00, // 13088
0xbd,0xfe,0x23,0x01,0xcc,0x03,0x24,0x0a, 0x92,0x05,0xfd,0xfe,0xd5,0xfd,0x15,0x04, // 13104
0x15,0xff,0xb6,0xfe,0xbd,0xfd,0x55,0xff, 0x2a,0xff,0x10,0xfe,0x06,0x00,0xa6,0xfe, // 13120
0x38,0xff,0x4b,0xf8,0x1b,0x06,0x4f,0xfe, 0xa7,0xfd,0xa9,0xff,0xc9,0xff,0x62,0x00, // 13136
0x0c,0x01,0x68,0x0c,0x52,0x01,0xeb,0xf9, 0x41,0xfd,0xa9,0xfe,0xa2,0x03,0x56,0xff, // 13152
0x41,0x02,0xbc,0x02,0x85,0xf7,0x3e,0x03, 0x4a,0x02,0xf2,0xfc,0xc9,0xfd,0x7a,0x00, // 13168
0xd7,0x03,0xf6,0x07,0x66,0xfb,0xc7,0xf7, 0x33,0xfb,0xc2,0x04,0xa6,0x01,0x7e,0x03, // 13184
0x56,0xfe,0x73,0xfe,0x93,0x04,0x82,0x01, 0x19,0xfe,0x9f,0xfd,0xc9,0x04,0x00,0xfc, // 13200
0xfc,0x00,0x01,0xff,0x26,0x00,0x31,0xff, 0xde,0x07,0xcf,0xff,0x6c,0x00,0xeb,0x00, // 13216
0x49,0x01,0xd6,0xfa,0x76,0xff,0xf3,0x00, 0x6d,0x00,0x2d,0xff,0x8d,0x08,0xbd,0xfb, // 13232
0x7c,0x01,0x24,0xfa,0xe0,0xff,0x95,0xfd, 0x94,0x00,0xfc,0x00,0x41,0x02,0x0e,0xf8, // 13248
0xbc,0xf6,0x7a,0xf3,0xbe,0xfe,0xcb,0xfe, 0xa5,0xff,0xe3,0x03,0xc0,0xff,0xe2,0xfd, // 13264
0xf7,0xfd,0x1e,0xfe,0xd1,0xff,0x44,0xfd, 0x9b,0xfc,0x83,0xfe,0x0d,0xf6,0x9b,0xff, // 13280
0xb6,0xff,0xe8,0xff,0x7d,0xff,0x71,0x00, 0x95,0x01,0x27,0x02,0x96,0xff,0xbc,0x06, // 13296
0x4d,0x00,0xb1,0xfd,0xdb,0x04,0x74,0xfe, 0x97,0xfe,0x5d,0x01,0xb4,0xfd,0x3a,0x0d, // 13312
0x76,0x03,0x8e,0x00,0x75,0xfe,0x07,0x02, 0x61,0x00,0xf1,0x03,0xd6,0xff,0xa4,0xff, // 13328
0xef,0x06,0xf3,0x01,0x1b,0xff,0xdf,0xff, 0x46,0x00,0xe2,0x07,0xc4,0x00,0xd5,0xfb, // 13344
0x2d,0xff,0x40,0xff,0xd7,0x04,0x35,0x00, 0xc6,0x00,0xbb,0x02,0x94,0xfc,0x06,0x02, // 13360
0xf9,0x00,0x64,0x02,0x14,0x09,0xbc,0xff, 0xf0,0xfe,0xdf,0xff,0xfa,0x00,0xbd,0xf2, // 13376
0x0c,0xfd,0xd0,0xfe,0xc3,0x00,0x60,0xfe, 0x42,0x00,0x2c,0x02,0x68,0x00,0x59,0x03, // 13392
0x5c,0xfc,0x1d,0x0a,0x94,0x01,0xcd,0x00, 0x49,0xfd,0xa3,0x00,0x6f,0xff,0xb1,0xff, // 13408
0x71,0x01,0xd7,0x03,0xc9,0x02,0xd1,0x02, 0x0f,0x00,0x85,0xf7,0x22,0xff,0x50,0x09, // 13424
0xe7,0xfc,0xcd,0xff,0xf6,0xf3,0x7f,0xfc, 0xa0,0xfe,0xe6,0xfe,0x6b,0x08,0x59,0xff, // 13440
0xcf,0xff,0x03,0x03,0x46,0x00,0x5b,0x01, 0xe4,0xfa,0x20,0xf8,0x66,0x08,0x4a,0x01, // 13456
0xf0,0x00,0x1b,0x00,0xf7,0xfc,0x39,0x01, 0x07,0x00,0x75,0x00,0x2a,0xfe,0x2f,0x00, // 13472
0x31,0x00,0x62,0xff,0x5d,0xfd,0x7b,0x05, 0x3c,0x00,0xec,0x00,0xfd,0xff,0x0e,0xfc, // 13488
0xc3,0xfc,0x83,0xfe,0xe8,0x00,0x2c,0x00, 0x84,0x01,0xe3,0x02,0x7e,0x01,0x7f,0x03, // 13504
0x05,0xfc,0xa9,0x00,0xd3,0xfd,0x9d,0x03, 0x82,0xfd,0x1b,0x00,0xd8,0xff,0x1a,0x01, // 13520
0xfe,0xff,0x7c,0x02,0x16,0x00,0x96,0x01, 0x04,0x04,0x70,0x01,0xe7,0x00,0x0a,0x01, // 13536
0xfd,0x02,0x27,0x00,0x93,0x00,0x70,0xff, 0xf5,0xff,0xd2,0xff,0x60,0x00,0xef,0x00, // 13552
0x00,0x02,0xa4,0xfb,0x1d,0x02,0xe7,0xfa, 0x56,0xff,0xa2,0xfe,0xba,0xff,0x8c,0xfc, // 13568
0xd1,0xfe,0x82,0xf8,0x3c,0x00,0x93,0xfc, 0xd2,0xff,0xc4,0xff,0xa4,0xfe,0x9f,0xff, // 13584
0xea,0xff,0x62,0xff,0x60,0x05,0x7c,0xfd, 0xc1,0x00,0x47,0xff,0x11,0x00,0x6d,0xfe, // 13600
0x4f,0xfe,0x07,0x00,0xb7,0x00,0x62,0x00, 0x8b,0xff,0x32,0xff,0x04,0x00,0xe5,0xff, // 13616
0x4f,0xfe,0x6e,0xfc,0xae,0x04,0xc1,0x01, 0xfc,0xfe,0x75,0x03,0xc6,0xfd,0xb0,0xff, // 13632
0x88,0xff,0x30,0x00,0x20,0x01,0x7b,0x00, 0xe6,0xff,0x9f,0xff,0x57,0xfe,0xbd,0xfe, // 13648
0xbd,0xff,0xc4,0xff,0x67,0x00,0x6d,0x02, 0xd4,0x00,0x43,0xff,0xcc,0xff,0x5b,0x00, // 13664
0xd0,0xff,0xed,0xff,0xa0,0x04,0xf0,0xfe, 0xf1,0x00,0x21,0x01,0x05,0x00,0x14,0x05, // 13680
0xa8,0x00,0x8d,0xfe,0x14,0x01,0x04,0x00, 0xa8,0xfd,0x4f,0xff,0x21,0x00,0x8d,0xfc, // 13696
0x4f,0x00,0x1e,0x02,0x93,0xfe,0xd2,0xfd, 0x8d,0x02,0xcc,0x05,0x38,0x01,0x9d,0x00, // 13712
0x08,0x00,0x21,0x01,0x82,0xfd,0x94,0xff, 0xea,0xff,0x1b,0x00,0xd1,0x03,0x1a,0x00, // 13728
0x64,0x03,0x33,0x04,0x2b,0x00,0x38,0xfd, 0x16,0xff,0xb6,0x00,0xf8,0xff,0x14,0x00, // 13744
0x9b,0x04,0xef,0xff,0x3c,0xff,0x19,0xff, 0xe8,0xfa,0x22,0xff,0xd8,0xfb,0xfb,0x05, // 13760
0x57,0x01,0xa1,0xff,0xab,0xfe,0xb8,0x00, 0x9e,0xff,0x16,0x04,0x6f,0x02,0xb7,0xf7, // 13776
0xa0,0xfe,0x49,0xff,0x17,0x00,0xd0,0xfe, 0x54,0x02,0x37,0xfe,0x8e,0xfe,0xf3,0xfb, // 13792
0x1c,0xf9,0xe7,0xff,0x69,0xfe,0x1b,0xfe, 0xaa,0x01,0x5d,0xff,0xbb,0xff,0xeb,0x00, // 13808
0x4f,0x02,0x71,0x01,0x4b,0xfd,0xac,0x02, 0xd6,0xfc,0x1e,0x03,0xfd,0xff,0x5d,0x00, // 13824
0x08,0xff,0x8c,0xfd,0x8a,0x00,0x26,0xff, 0x4a,0xff,0x2a,0x01,0x70,0x01,0x61,0x00, // 13840
0xe3,0x05,0xd1,0xfe,0xc3,0xfe,0x0b,0x04, 0x62,0x02,0xbb,0x02,0x0d,0x06,0x8b,0xff, // 13856
0x47,0x02,0x9b,0xfe,0x70,0x01,0x58,0xf9, 0xac,0xfe,0x6b,0xf7,0x77,0x00,0x53,0xfd, // 13872
0x12,0x03,0xdd,0x01,0x70,0xff,0xaf,0x02, 0xf0,0xf9,0xe6,0x01,0xdd,0xf8,0xea,0xf9, // 13888
0x9f,0x01,0x4c,0xff,0xad,0xff,0xf6,0x00, 0xe3,0x02,0x55,0x00,0xf5,0xfe,0xfb,0xfd, // 13904
0xdd,0xfe,0x28,0xfe,0x85,0x00,0xda,0x07, 0x66,0xfb,0x61,0x01,0xae,0xfe,0xf4,0x00, // 13920
0x20,0x01,0xd1,0x00,0xba,0xfe,0x33,0x00, 0x2b,0xff,0xc8,0xff,0x8d,0x02,0x64,0x00, // 13936
0x5b,0x06,0x55,0xff,0x1f,0x00,0x88,0x00, 0x8c,0xff,0x42,0x00,0x64,0xff,0x03,0x00, // 13952
0xc1,0xfb,0xcb,0x00,0x27,0x03,0x54,0xff, 0xc1,0xfe,0xfe,0xfa,0x25,0x0a,0x81,0x00, // 13968
0x3e,0xfd,0x5b,0x01,0xd6,0x02,0xb1,0x02, 0x58,0x00,0x00,0x01,0x89,0x00,0x8a,0xff, // 13984
0xf9,0xfd,0x7f,0xff,0xf8,0xff,0x9e,0xfd, 0xde,0x00,0x27,0x00,0x42,0xfe,0x66,0xff, // 14000
0x46,0x00,0x43,0x02,0x63,0xff,0xe6,0x01, 0x6f,0x00,0x2c,0x04,0x77,0x00,0x86,0xfe, // 14016
0x7e,0xf8,0x5d,0x04,0x1f,0x00,0xda,0x05, 0x9a,0xfe,0x11,0x00,0x60,0x00,0xfb,0x03, // 14032
0x9a,0xff,0xf1,0x00,0xb6,0x00,0x50,0xfb, 0x01,0xfe,0x40,0xff,0x12,0xfe,0x75,0x09, // 14048
0xf4,0x02,0xc8,0x00,0x61,0x02,0xbd,0x00, 0x06,0xfe,0x9e,0xfe,0xe9,0xfe,0xe7,0xf5, // 14064
0xd2,0x00,0xe2,0xff,0xbf,0x01,0x8b,0xfe, 0x35,0x02,0x2a,0xff,0x7f,0x00,0x66,0xfd, // 14080
0x59,0x02,0x01,0xfd,0x6e,0xfe,0x75,0xfe, 0xc4,0xfd,0xb7,0xfc,0x48,0xff,0x9a,0xff, // 14096
0x8a,0xfc,0x07,0x00,0x0b,0x00,0x4c,0x00, 0xc8,0xff,0xae,0xfe,0x61,0xff,0xdb,0xfe, // 14112
0x76,0xfe,0x72,0x08,0x7a,0xff,0x1d,0x0c, 0x91,0x02,0x04,0x02,0x1e,0xfe,0x68,0x06, // 14128
0xa4,0xff,0x65,0x02,0x68,0xff,0x70,0x02, 0x74,0x02,0x23,0x00,0x8a,0x01,0x33,0x00, // 14144
0x3f,0x00,0x89,0x02,0x92,0xfc,0x81,0x02, 0xc1,0x00,0x2b,0xff,0x29,0x01,0xfc,0xff, // 14160
0x8f,0xff,0x50,0x00,0xe0,0xff,0xb2,0x00, 0x83,0x00,0x03,0x00,0xa1,0x00,0x74,0xfd, // 14176
0xaf,0xff,0x16,0x02,0x5d,0xf8,0x53,0xff, 0x47,0x02,0x5d,0xfe,0x78,0x01,0x55,0xfe, // 14192
0xb8,0xff,0xc9,0x00,0xc2,0x00,0xa0,0x03, 0x59,0x00,0x7c,0x01,0x64,0x02,0x7d,0x02, // 14208
0xa3,0x00,0xd9,0xff,0xa2,0xff,0x83,0xfe, 0x09,0xfe,0x0b,0x01,0x51,0xff,0x8b,0x00, // 14224
0x8c,0xff,0x1f,0x00,0xc1,0xf1,0xf6,0x00, 0x97,0xff,0x89,0xff,0x02,0x00,0x04,0xf4, // 14240
0xc1,0x00,0xb6,0x00,0x6c,0xfe,0x2a,0x00, 0x12,0xfe,0x03,0x01,0x9b,0x00,0xfa,0x00, // 14256
0x82,0xff,0xb7,0xfd,0x67,0xff,0x06,0x01, 0x33,0x00,0x81,0xf3,0xb6,0xfd,0x12,0xff, // 14272
0x66,0xff,0xce,0xfc,0x7e,0x01,0x11,0x00, 0x36,0x00,0x3c,0x00,0x05,0xf5,0x05,0x00, // 14288
0x6f,0xfb,0xe3,0xfc,0xd3,0x00,0x60,0x02, 0x7f,0xff,0xb9,0xfe,0xb9,0x01,0x03,0x00, // 14304
0xa1,0xf4,0xa0,0xff,0x3d,0x00,0x03,0xff, 0x2c,0xfb,0x6f,0xff,0x57,0xfa,0xb1,0x05, // 14320
0x5c,0x00,0xa4,0xfe,0xff,0xfe,0x2b,0x01, 0x69,0xfd,0xbf,0x03,0x98,0x01,0xdd,0xf9, // 14336
0x41,0x00,0x7d,0xff,0xb4,0xff,0x35,0xff, 0xc6,0x01,0xf9,0xfc,0xcd,0xfd,0x62,0xfd, // 14352
0x6e,0xf8,0x29,0xfe,0x00,0xff,0x18,0xff, 0x72,0x00,0x57,0x00,0x96,0x00,0xb4,0x01, // 14368
0x67,0x04,0xb6,0x01,0xab,0xfc,0x1b,0x02, 0x1f,0xfd,0x58,0x03,0x86,0x00,0xfd,0xfe, // 14384
0x80,0xfd,0x6f,0xfe,0xcf,0x00,0xeb,0xfe, 0xcd,0xff,0xec,0x00,0x9c,0x02,0xad,0xff, // 14400
0x99,0x06,0xbc,0xfd,0x4b,0xfc,0xaf,0x03, 0x11,0x04,0xf1,0x01,0x2c,0x07,0x35,0xfe, // 14416
0x5f,0x03,0x7d,0xfe,0x3b,0x00,0x74,0xf9, 0x1d,0xff,0x8b,0xf8,0x59,0x03,0xe4,0xfc, // 14432
0x35,0x04,0x38,0xff,0xf0,0xfe,0xd2,0x02, 0x2d,0xf8,0xa7,0x01,0xa1,0xfb,0x92,0xfb, // 14448
0xef,0xff,0xa0,0x01,0xed,0xfe,0x98,0x01, 0x16,0x02,0xb8,0x00,0xa3,0xff,0x13,0x01, // 14464
0xf9,0xff,0x38,0xfe,0x3f,0xff,0x2a,0x06, 0x70,0xfb,0x1d,0x01,0xe3,0xff,0x10,0x02, // 14480
0xe8,0x02,0x20,0x01,0xfa,0xfd,0xc7,0xff, 0xe5,0xff,0xe5,0xff,0xd5,0x02,0x61,0x02, // 14496
0xb4,0x06,0x55,0xff,0x6f,0xff,0x6d,0xff, 0x17,0xff,0x9f,0x02,0xdb,0xff,0xf2,0xff, // 14512
0x82,0xfe,0x6e,0x00,0x24,0x05,0x5b,0x00, 0x49,0xfe,0xc8,0xfb,0xfb,0x08,0x54,0x00, // 14528
0x36,0xfc,0x0c,0x00,0x61,0x01,0xb8,0x01, 0xae,0x00,0x66,0x01,0x2a,0xff,0xf8,0xfe, // 14544
0x48,0xfe,0x2b,0x00,0x07,0xfe,0xbc,0xfd, 0x8c,0x00,0x6d,0x00,0x11,0xfd,0xfe,0xff, // 14560
0xb2,0xfe,0xf3,0x01,0x1d,0x00,0x1c,0x01, 0x35,0x00,0x7b,0x05,0xda,0x00,0x61,0xfd, // 14576
0x85,0xf9,0xba,0x04,0xad,0xfd,0xdb,0x06, 0x08,0x01,0x9d,0x00,0x5d,0x00,0x07,0x04, // 14592
0x3a,0x00,0x02,0xff,0xeb,0xff,0x09,0x00, 0x48,0x00,0x50,0xff,0xe9,0x00,0x5b,0xfe, // 14608
0xf9,0xff,0xde,0x00,0x38,0xff,0x2f,0x00, 0x2f,0x00,0xb4,0x00,0x77,0xff,0x45,0x00, // 14624
0x3d,0x00,0x77,0xff,0xcc,0x00,0x4b,0x00, 0xbe,0xff,0x7d,0xff,0xff,0xfe,0x76,0xff, // 14640
0xd9,0xff,0xeb,0xff,0x4b,0xff,0xce,0xff, 0x8e,0xff,0x77,0xff,0x4e,0x01,0x10,0x00, // 14656
0x92,0xff,0x41,0x00,0x36,0x14,0x1b,0xff, 0x5c,0xfe,0x37,0xff,0xc2,0x01,0x6d,0x00, // 14672
0xee,0x00,0xd1,0xff,0xf2,0xff,0x4c,0xff, 0x86,0x00,0x54,0x01,0x77,0x00,0x6a,0x00, // 14688
0xdc,0xfe,0xc6,0x00,0x28,0x00,0xca,0xff, 0x88,0x00,0x0b,0x00,0x92,0xff,0xe6,0xfe, // 14704
0x6b,0xeb,0x1e,0x00,0xc8,0xff,0x6b,0xff, 0x53,0x00,0x69,0xff,0x16,0xff,0xdd,0xff, // 14720
0xe5,0x00,0x9b,0x00,0x80,0x00,0x6c,0xff, 0x9f,0xff,0x29,0x02,0x25,0xff,0xcd,0xff, // 14736
0x08,0x00,0x42,0x00,0x37,0x00,0xb4,0xff, 0x05,0x00,0x5b,0xff,0x77,0xff,0xf1,0xff, // 14752
0x27,0x01,0x2f,0xff,0x17,0x00,0xfc,0xff, 0xe1,0x00,0x8c,0x00,0xa8,0xff,0x93,0xff, // 14768
0xaa,0xff,0x31,0xfe,0x18,0xff,0xc5,0x00, 0x59,0x00,0x1e,0x00,0x6f,0x16,0xcc,0xfd, // 14784
0x4a,0x01,0xa5,0x00,0x93,0x01,0x36,0xff, 0xe8,0xff,0xa1,0x00,0x43,0x00,0x5d,0x00, // 14800
0x70,0xff,0x93,0x00,0x8b,0xfe,0xf1,0x01, 0xf8,0x00,0xd8,0xff,0x4d,0xff,0x39,0x00, // 14816
0xa1,0xfe,0x43,0x00,0x18,0x00,0xda,0xff, 0x31,0x00,0x3d,0x01,0x60,0x00,0xc8,0xff, // 14832
0xd4,0xe9,0xdf,0x00,0xc7,0xff,0xc8,0xed, 0xd2,0xee,0x9b,0x00,0x2a,0x00,0x4d,0x01, // 14848
0x6b,0x00,0x7f,0x00,0x8e,0x00,0x5b,0x00, 0x4c,0x00,0x1a,0xff,0x15,0xfe,0xc8,0xff, // 14864
0x62,0x00,0x68,0x13,0x20,0xfc,0xf9,0xff, 0x01,0xff,0x99,0x05,0x16,0x02,0x62,0xf8, // 14880
0xd2,0xf9,0x4b,0x00,0xa0,0xfc,0x4d,0xff, 0x1b,0x03,0x83,0xfc,0xb3,0x00,0x15,0x02, // 14896
0x48,0x04,0xab,0xfd,0x91,0xf9,0x6b,0x01, 0x8f,0x00,0xd0,0x09,0x35,0x00,0x57,0xfc, // 14912
0x06,0x07,0x96,0x03,0xf8,0xff,0x31,0x00, 0x2d,0x01,0x45,0x03,0x58,0x04,0x1d,0x00, // 14928
0xc3,0xfb,0xfe,0xfd,0x33,0xff,0x22,0xf8, 0xbc,0x00,0x03,0xff,0xdc,0xfd,0x91,0x06, // 14944
0x37,0x04,0x00,0xff,0x10,0xfc,0x52,0xfd, 0xdf,0xfc,0xc7,0xfd,0x41,0xff,0x23,0xfe, // 14960
0xda,0xff,0xd4,0xff,0x0b,0x00,0x02,0xfe, 0xb2,0x01,0xa4,0xff,0x73,0xfe,0x96,0x02, // 14976
0x07,0x00,0xb2,0xfe,0xc9,0x02,0x3c,0x03, 0xdb,0x02,0xb4,0x02,0x5a,0xfa,0xd8,0x03, // 14992
0x2d,0xfd,0xbe,0xfd,0xe1,0x06,0x84,0xff, 0x77,0xff,0xf1,0xfa,0x2f,0x00,0x91,0x04, // 15008
0x4d,0xfd,0xab,0xfd,0x4f,0x05,0xd7,0xfb, 0x4c,0x00,0x2d,0x02,0x67,0x01,0x66,0xfe, // 15024
0x4e,0x02,0xec,0xff,0x89,0x01,0x42,0xfd, 0xea,0x00,0x11,0x02,0x6f,0xfd,0x14,0x00, // 15040
0xa0,0xfb,0x00,0x03,0xe2,0x03,0x01,0xfd, 0x28,0xfc,0x93,0xff,0x45,0x00,0x05,0xfd, // 15056
0x55,0xfa,0xf4,0xfd,0x61,0xfd,0xf6,0x05, 0x45,0x01,0x5e,0xf9,0x12,0x01,0x28,0x04, // 15072
0xca,0xfe,0xcb,0xfe,0x8c,0xfa,0xfc,0x00, 0x7d,0x00,0x3a,0x01,0x70,0xfe,0x02,0x00, // 15088
0x4c,0x01,0x78,0x03,0xd4,0x00,0xed,0x00, 0x4e,0x00,0xf1,0xfd,0x1c,0xfa,0x99,0x02, // 15104
0x8a,0xfe,0xed,0x00,0x79,0xff,0x4b,0xff, 0x50,0x02,0x49,0xfe,0xeb,0x04,0x08,0x03, // 15120
0x17,0x03,0x94,0xff,0x0a,0x01,0x66,0xfa, 0x5f,0xf8,0x99,0xf9,0x58,0xfc,0xf5,0xff, // 15136
0x2e,0x02,0x13,0xfe,0xb5,0x05,0xf4,0xff, 0x2c,0x01,0x1d,0xfe,0xd2,0x05,0x30,0xff, // 15152
0x2b,0xfd,0xa2,0x0a,0x72,0xfe,0x68,0xfd, 0xe9,0xf7,0x57,0xfa,0x4f,0xfa,0x07,0x00, // 15168
0x65,0xfc,0xb8,0xfe,0x33,0x06,0xb6,0x04, 0x3c,0xfe,0xb7,0x02,0xf9,0xfd,0x1e,0x00, // 15184
0x74,0xff,0x5c,0x07,0xf6,0xfc,0x14,0x01, 0x59,0x03,0x82,0x03,0x56,0x00,0x6e,0xfd, // 15200
0xf3,0x06,0x9b,0xff,0xf5,0xfe,0x86,0x08, 0xfb,0x02,0xa9,0x03,0xab,0x02,0x29,0xfe, // 15216
0xf3,0xfe,0x69,0x00,0xe1,0xfd,0x83,0x07, 0x9d,0x02,0xc6,0xf9,0xc0,0xfe,0x31,0x02, // 15232
0x20,0x01,0x60,0x00,0x58,0x06,0x51,0x00, 0xa4,0x04,0xfd,0x01,0xfa,0xfa,0x8d,0x01, // 15248
0x03,0xfe,0x07,0xfd,0xd2,0xff,0xe8,0xfe, 0x23,0x05,0x2c,0x00,0xdd,0xfe,0x01,0x00, // 15264
0x58,0x00,0xc3,0x04,0x3b,0x00,0x8f,0xff, 0xb4,0xfa,0x06,0xf9,0x2c,0x06,0xd9,0xfb, // 15280
0x77,0x01,0xec,0xfe,0x6c,0x01,0x2f,0x06, 0x2e,0xf1,0xee,0xfe,0xc4,0x06,0x14,0xfa, // 15296
0x19,0xfb,0x9b,0xfd,0xf9,0xff,0x34,0x03, 0x91,0x08,0xd4,0x01,0x80,0xfd,0x8b,0xfc, // 15312
0xbb,0xfe,0x23,0xfe,0x76,0xff,0x97,0x04, 0x40,0xfe,0x98,0xfd,0x57,0xfc,0x3b,0x00, // 15328
0x93,0x00,0x71,0x00,0xe4,0xfb,0x7f,0x02, 0xe6,0xfb,0xd7,0x00,0x4c,0xfe,0x68,0x06, // 15344
0x99,0xff,0x4b,0xfa,0x32,0x00,0x78,0xfe, 0x80,0x00,0x61,0xf6,0xa6,0xff,0x92,0xff, // 15360
0xd7,0x00,0x69,0x01,0xd4,0xfc,0x0b,0x00, 0x0b,0xfc,0xa3,0xfd,0xdb,0xfd,0x8d,0xfd, // 15376
0xf1,0xff,0x31,0x04,0x67,0xfe,0x1d,0xfc, 0xa3,0x01,0x32,0x00,0x26,0x08,0xa0,0x00, // 15392
0xe3,0x01,0xe7,0xfa,0xf7,0xfc,0x05,0x02, 0xae,0x01,0xda,0x04,0x98,0xff,0xf4,0xfd, // 15408
0x96,0xfe,0xeb,0xfe,0x0b,0xf4,0x26,0x00, 0x8b,0xfe,0x3f,0xff,0x40,0x05,0x86,0x01, // 15424
0x96,0xff,0x8e,0xfe,0x5f,0x05,0x93,0xfa, 0xd4,0x01,0x2f,0xf7,0xe6,0x00,0x2c,0x01, // 15440
0x20,0x08,0x47,0x05,0x29,0x04,0x8a,0xff, 0x67,0x01,0x7d,0xff,0xf1,0xfa,0x05,0xfe, // 15456
0x00,0x00,0xe8,0xfe,0x43,0x01,0xbb,0xff, 0x93,0x01,0xd8,0xfa,0x36,0x02,0x47,0xfe, // 15472
0x65,0xfc,0x0d,0xfd,0x0e,0xff,0x47,0x03, 0x9b,0xfb,0xbc,0x00,0x2a,0x01,0x58,0xf9, // 15488
0x9a,0xfd,0x7c,0xfd,0xe2,0xfd,0x1a,0x01, 0x89,0x01,0x5b,0xff,0x74,0x00,0x64,0xf9, // 15504
0xf5,0xfc,0xda,0x04,0xe2,0x01,0xb5,0xff, 0x17,0x00,0x87,0xff,0xd9,0xfa,0x54,0xff, // 15520
0xca,0xfb,0x8a,0xfc,0x93,0x05,0x4b,0xfd, 0x18,0x03,0x56,0x01,0x81,0x01,0x93,0x01, // 15536
0xfa,0xfc,0x59,0x00,0xdd,0xfe,0xd1,0x00, 0x29,0xfe,0x3a,0xfd,0x9f,0x00,0x91,0x01, // 15552
0x1e,0x03,0xd1,0x04,0xb8,0xfa,0xa9,0x02, 0x30,0xfe,0xdf,0xff,0x27,0x00,0xad,0xfc, // 15568
0x6f,0x0b,0xb8,0x00,0xcb,0xfa,0x4a,0x05, 0x82,0x05,0x19,0x01,0xee,0x00,0xf1,0xfe, // 15584
0x63,0xf9,0x87,0xff,0x67,0x01,0x81,0x01, 0x63,0x02,0xb2,0xff,0xdd,0x00,0xf8,0xf8, // 15600
0xc1,0x01,0xda,0x00,0x79,0x01,0xf1,0xfe, 0xb1,0x00,0x14,0x00,0xa6,0x03,0xe4,0xfe, // 15616
0xbd,0x04,0x69,0x00,0x9c,0x01,0xdf,0xfa, 0x4f,0xff,0x7b,0x04,0xf0,0xff,0x08,0x01, // 15632
0xe8,0x01,0x56,0x08,0x71,0x00,0x93,0x00, 0x00,0xff,0x33,0xfd,0x0b,0x02,0x6b,0x00, // 15648
0x90,0x04,0x16,0x01,0x2b,0x00,0xec,0x02, 0x46,0xff,0x6c,0xfc,0xe8,0x01,0x5b,0x01, // 15664
0x9b,0xfd,0xa0,0x00,0x72,0xfa,0xd4,0x00, 0x37,0xfe,0x17,0x06,0xfd,0x01,0xe9,0xfd, // 15680
0xd6,0xfe,0xda,0xfc,0x32,0x00,0x8a,0x01, 0x9d,0x02,0x92,0x00,0x96,0x0a,0x22,0xfe, // 15696
0xff,0x00,0xca,0x00,0x90,0xfa,0x55,0xfe, 0x86,0x00,0xdf,0x00,0x6e,0xfc,0x11,0x03, // 15712
0x38,0xfe,0xf0,0x0b,0x7b,0xfe,0x25,0xfe, 0x0e,0xfa,0xd8,0xfb,0x1d,0xfd,0xb7,0x01, // 15728
0x28,0x01,0x8e,0xff,0x30,0x05,0x4a,0x00, 0x09,0xff,0x9b,0xfe,0x97,0xfe,0xe7,0xff, // 15744
0x42,0x02,0x3c,0x03,0x4f,0x00,0x0f,0x01, 0x29,0x01,0x02,0x01,0x3b,0x01,0x6e,0xfd, // 15760
0x96,0x02,0xd4,0xfe,0x06,0x00,0x3f,0x03, 0x1a,0xff,0xaf,0xfe,0x2e,0x01,0x90,0xff, // 15776
0x58,0xfd,0x99,0x00,0xe8,0x00,0xfa,0x08, 0xaa,0x02,0x26,0xfe,0xfe,0xfd,0x92,0xfd, // 15792
0xe8,0xff,0x6f,0x00,0x8b,0x01,0xbf,0x00, 0x58,0x03,0x17,0x02,0x7e,0xfc,0x8b,0x00, // 15808
0xc4,0xfe,0x74,0xff,0xcf,0x00,0xaf,0xff, 0x62,0x02,0x1c,0x00,0x73,0xff,0x81,0xfe, // 15824
0xd7,0x00,0xe7,0x01,0x0d,0x00,0x55,0x00, 0x28,0xfd,0xfe,0xfa,0x8b,0x07,0x84,0xff, // 15840
0x4e,0xff,0x4d,0xfe,0x38,0xfe,0x45,0x02, 0x0c,0xfb,0x82,0xfe,0x04,0x07,0x83,0xfc, // 15856
0xcf,0xfd,0x11,0x02,0x82,0xff,0x7e,0xfe, 0x7a,0x04,0x7c,0x00,0x05,0x00,0xde,0xfd, // 15872
0x9a,0xfc,0xdd,0x00,0xe3,0xfd,0x50,0x04, 0x66,0xfe,0xf5,0xff,0x77,0xff,0x48,0x00, // 15888
0x0a,0xff,0x27,0x01,0x1d,0xff,0xd5,0xfe, 0x0a,0xff,0xa6,0xff,0x08,0xff,0x3b,0x08, // 15904
0xbc,0xfe,0x12,0xfa,0xb3,0xfe,0x3e,0x00, 0xbb,0xfd,0x09,0xff,0xcd,0xfe,0x37,0xff, // 15920
0xda,0xfe,0x77,0x00,0x62,0xff,0x74,0xff, 0x24,0xfc,0x18,0x00,0x4b,0x00,0xf3,0xfe, // 15936
0x2a,0x01,0x01,0xff,0x61,0xff,0x9f,0xff, 0x4d,0x02,0x76,0xff,0xe8,0x01,0x02,0xff, // 15952
0x9e,0x00,0xbe,0xfd,0x31,0xff,0x21,0x00, 0x92,0x00,0xe7,0x02,0x4e,0xff,0x99,0xfc, // 15968
0x14,0xff,0x80,0xff,0xf1,0xf9,0x81,0xff, 0xd3,0xfc,0x91,0x00,0x35,0x06,0x13,0x02, // 15984
0x28,0xff,0x6b,0xfe,0x6d,0x04,0x66,0xfe, 0x76,0xfe,0x8b,0x00,0x81,0xf7,0x5e,0x08, // 16000
0x4e,0x00,0x38,0x01,0x51,0x00,0x5f,0x01, 0x96,0xfb,0x50,0x00,0x9c,0x00,0xcd,0xfb, // 16016
0x02,0x00,0x24,0xff,0xc8,0x00,0x24,0xfe, 0x1a,0x01,0xfd,0xff,0x81,0xf7,0x58,0x00, // 16032
0xe0,0xf9,0xfc,0x01,0x99,0x00,0x61,0x03, 0x51,0xff,0x8b,0xff,0x60,0x00,0x83,0x03, // 16048
0x31,0x06,0x8e,0x02,0x21,0x00,0xb8,0x02, 0xeb,0xff,0x3f,0x01,0xd3,0xfe,0x49,0x02, // 16064
0x0b,0x01,0x7b,0xff,0xf6,0xfe,0x47,0xff, 0xf2,0xff,0xf5,0x00,0x53,0x04,0x59,0x00, // 16080
0x31,0x01,0x8b,0xfd,0xa3,0xff,0x88,0xff, 0x8e,0x02,0x01,0xff,0xc4,0x05,0xe7,0xfa, // 16096
0xc1,0x01,0x42,0xff,0xbb,0xfe,0xf7,0xfe, 0x23,0x02,0x84,0xfa,0xda,0x06,0xc5,0xfc, // 16112
0xc8,0xff,0x8b,0xff,0x2e,0x01,0x36,0x00, 0x98,0xfb,0xae,0x01,0xe1,0xfc,0x97,0xfc, // 16128
0x26,0xff,0xd4,0xfd,0x73,0x01,0x3d,0x01, 0xa5,0x01,0xfe,0xfd,0xa6,0xff,0x1c,0xff, // 16144
0xa1,0xff,0x3c,0xff,0x7c,0xff,0x96,0x01, 0xff,0xfd,0xb7,0x01,0xcf,0x00,0x1b,0xfd, // 16160
0xd0,0xff,0xe0,0xff,0xec,0xfd,0x86,0x00, 0x09,0x01,0x77,0x00,0x55,0x02,0xa2,0x02, // 16176
0x7a,0x03,0xfa,0xff,0x9b,0xff,0x9a,0x01, 0x5c,0xff,0x8e,0xff,0x7a,0xfe,0x52,0x01, // 16192
0x4e,0xff,0xa0,0xff,0xe3,0xfe,0xde,0xfe, 0x43,0xff,0x9c,0xfa,0x78,0x04,0x3e,0x00, // 16208
0x05,0xfc,0xa7,0xff,0x08,0x00,0x7a,0x01, 0x1b,0x01,0x21,0x05,0xeb,0x00,0xd8,0xfd, // 16224
0xcd,0xfe,0x18,0xff,0x1d,0x02,0x42,0xfe, 0xa5,0x01,0xbb,0x01,0xa5,0xfa,0xf5,0x00, // 16240
0xad,0x00,0xc2,0xfe,0xb0,0xff,0x63,0x00, 0xc5,0x01,0x84,0x05,0x0e,0xff,0x72,0xf9, // 16256
0x99,0xfb,0xaf,0x03,0x37,0x02,0x04,0x01, 0xaa,0xfe,0x41,0xff,0x75,0x01,0x57,0x01, // 16272
0xad,0xfd,0x4b,0x01,0xae,0xfd,0x52,0xfc, 0xe4,0xfb,0xd2,0xfb,0x13,0xfc,0x55,0x06, // 16288
0xd0,0xfe,0xbe,0x00,0x1a,0x06,0x4e,0x04, 0x3a,0xf2,0x00,0x04,0xa5,0xfe,0xac,0xf8, // 16304
0x69,0xfd,0xaa,0x02,0xbb,0xff,0x42,0x04, 0xb4,0x01,0xab,0xff,0x58,0x01,0xaa,0xfb, // 16320
0xcc,0x04,0xcf,0xf6,0xa2,0xfa,0x17,0x01, 0x5e,0x00,0x82,0x00,0x5f,0x03,0x85,0xfe, // 16336
0x51,0xfc,0x48,0x01,0x4b,0x00,0x34,0x00, 0xf4,0x00,0xd6,0xfa,0xe1,0xff,0xda,0x04, // 16352
0x09,0x02,0xb1,0x03,0x2c,0x02,0x65,0x08, 0x62,0x03,0xe6,0x03,0x1b,0xfa,0xfd,0x02, // 16368
0xea,0xfc,0x7f,0xfe,0x0b,0x00,0x00,0x01, 0x39,0x03,0xe6,0x04,0x93,0xfe,0x55,0x00, // 16384
0x07,0x00,0xc1,0x02,0x1c,0xff,0xb7,0xfe, 0x5c,0xff,0xf3,0xfb,0xd2,0x01,0xd4,0xfc, // 16400
0xba,0x01,0x38,0xff,0x5d,0x01,0xa7,0x01, 0xb8,0xfd,0xf7,0xfe,0x24,0x00,0x15,0xfa, // 16416
0x77,0xfc,0x77,0xfd,0xc4,0xf2,0x1b,0x04, 0x5e,0x05,0xe1,0x01,0xd1,0xfc,0x25,0xfe, // 16432
0xf6,0xfc,0x79,0xfc,0x59,0x01,0xe8,0x03, 0x9a,0xff,0x5e,0xfb,0xac,0xfd,0xa9,0x09, // 16448
0xe4,0x01,0x72,0x01,0x9c,0xfd,0x49,0xff, 0x78,0xfd,0x7c,0x06,0x59,0xff,0xb1,0x00, // 16464
0x16,0xfe,0x2b,0xff,0xc1,0xf9,0xa7,0xfc, 0x92,0xff,0xf4,0xfe,0xbf,0x00,0x77,0xf9, // 16480
0x45,0xff,0xb1,0x01,0xc9,0xfc,0x31,0xff, 0x6f,0xfc,0xfa,0xf9,0x02,0xff,0x77,0xfd, // 16496
0x70,0x00,0xe1,0xfe,0x34,0xfe,0x29,0x00, 0x38,0x04,0x50,0xf8,0x02,0x01,0x33,0x01, // 16512
0x2f,0x00,0x75,0xfa,0x07,0x00,0x12,0x00, 0x43,0x00,0x38,0x05,0x54,0xf8,0x85,0xff, // 16528
0xc1,0x01,0xe8,0xfe,0x4c,0xff,0xdf,0x02, 0xd2,0xfd,0x6e,0xfe,0x6a,0x00,0x05,0x01, // 16544
0x46,0xf9,0x50,0xff,0xf0,0x00,0xd2,0xfc, 0xd7,0xff,0x05,0x00,0xb3,0xff,0xa0,0x00, // 16560
0x69,0xfe,0x85,0x01,0xc5,0xfe,0x09,0xff, 0xcc,0x00,0xf9,0xfd,0x37,0x00,0x9a,0x00, // 16576
0x31,0x00,0x74,0x00,0x33,0x00,0x83,0x00, 0xa0,0xf7,0x43,0x01,0x7d,0xff,0x0d,0x05, // 16592
0x22,0xff,0xf6,0xff,0xc5,0xff,0x58,0x00, 0x1d,0xff,0x10,0x00,0x76,0xff,0xb4,0xff, // 16608
0x1e,0xff,0x4a,0x00,0x03,0x06,0x79,0xfe, 0xd3,0x02,0xa0,0xfe,0x56,0xff,0x40,0x00, // 16624
0x43,0x00,0xbd,0x00,0xc4,0x00,0xae,0x01, 0xda,0xff,0x19,0xff,0xcb,0xfe,0x00,0x00, // 16640
0x8c,0xff,0x57,0xfe,0xe1,0xff,0x6e,0xfe, 0xc8,0xfd,0xf4,0xfb,0x62,0xff,0x83,0x01, // 16656
0xc7,0x00,0xf4,0x01,0xcd,0xff,0xd5,0x00, 0x52,0x00,0x60,0x00,0xd2,0x00,0xa0,0x00, // 16672
0x07,0xff,0xa2,0xfe,0xa3,0x00,0x47,0xfa, 0xa8,0x00,0x7d,0x00,0x6d,0x01,0x30,0x01, // 16688
0xe3,0xff,0xf4,0xff,0xf1,0xff,0x14,0xff, 0x3d,0xfc,0x0f,0xff,0x16,0x01,0x80,0x00, // 16704
0xb4,0x00,0xc5,0x07,0x3b,0xfe,0x15,0xfe, 0x7b,0x00,0x02,0x00,0xac,0xff,0x26,0xff, // 16720
0xd9,0xff,0xd1,0xfe,0x91,0xff,0xc2,0x00, 0xc4,0xff,0x84,0xff,0xa4,0xfc,0x8a,0xff, // 16736
0xf4,0xff,0x2c,0x02,0x34,0x00,0x66,0x00, 0x9c,0x00,0x8c,0xff,0x29,0x00,0xa7,0x00, // 16752
0x16,0x00,0x7b,0xff,0x9a,0xff,0x3e,0x00, 0xe1,0xff,0x89,0x00,0x58,0xff,0xd6,0xff, // 16768
0x70,0xff,0x2c,0xff,0x8d,0xff,0xd0,0xf7, 0x89,0xff,0x5d,0xff,0x2d,0x00,0x43,0x00, // 16784
0xd0,0x08,0x13,0x01,0x27,0xff,0x3e,0x00, 0xa4,0xff,0xf6,0x01,0x46,0x00,0xb1,0xff, // 16800
0x8f,0x00,0xca,0xfe,0xc0,0xff,0x33,0x00, 0x28,0xff,0x0f,0x00,0x46,0x00,0xc7,0x00, // 16816
0xb3,0xff,0x50,0xff,0x01,0x01,0x09,0xff, 0xe5,0x00,0xf0,0xff,0x12,0x01,0x96,0xfd, // 16832
0xe5,0x01,0xfe,0xfa,0x63,0x00,0xd9,0xff, 0x04,0x02,0xad,0x00,0xc5,0x02,0xbf,0xf9, // 16848
0x86,0x00,0x07,0xff,0x07,0xfe,0xb7,0xff, 0x16,0x00,0xc0,0xff,0xbc,0xff,0xee,0x05, // 16864
0x3f,0xff,0x55,0xfe,0x0e,0x01,0xa4,0x00, 0x61,0xff,0x98,0xfc,0xb2,0xfd,0x46,0xfe, // 16880
0x71,0xfe,0x72,0xff,0x0e,0x00,0xd5,0xfe, 0xd4,0x00,0x43,0xff,0x29,0x00,0x04,0x01, // 16896
0xce,0x00,0x99,0x00,0x25,0x01,0x4a,0xfe, 0xa4,0xfe,0x1d,0x00,0x82,0x00,0x69,0x00, // 16912
0xc6,0x00,0xdd,0xfd,0x08,0xff,0xec,0xfa, 0x71,0xff,0x63,0xff,0xeb,0x02,0x8f,0xfe, // 16928
0x4b,0xff,0x38,0xff,0x93,0xff,0x33,0x01, 0xb0,0xfe,0x5c,0x00,0xe1,0x00,0xd2,0xff, // 16944
0xcb,0xfe,0x72,0xff,0xf4,0xff,0xd8,0x00, 0x96,0x01,0x76,0x00,0x84,0xfc,0x7d,0x00, // 16960
0x65,0x00,0xe9,0xff,0x73,0xff,0xcf,0xfe, 0xb8,0x00,0x41,0x00,0x66,0xfe,0xac,0xff, // 16976
0x46,0x00,0xd4,0x00,0xed,0x01,0xbf,0xff, 0x19,0xff,0x8c,0x00,0xc3,0x00,0xb7,0xff, // 16992
0xa3,0x00,0x01,0xff,0x54,0xff,0xaa,0xfe, 0xb4,0x00,0x95,0xff,0x9c,0x00,0xe6,0xff, // 17008
0x16,0x01,0x1c,0xfb,0x0d,0xff,0xab,0xfe, 0xd5,0x01,0x89,0x00,0x6b,0x00,0x20,0xff, // 17024
0x75,0x04,0x11,0x01,0x6b,0x04,0x3b,0xfe, 0x30,0xff,0xf0,0x00,0x55,0x00,0x54,0x08, // 17040
0x64,0xff,0x59,0x00,0x28,0xff,0xf0,0x02, 0xa0,0x01,0x5a,0x01,0xed,0xff,0x19,0xff, // 17056
0x31,0xfb,0x46,0xfe,0x7c,0x00,0xef,0x00, 0x56,0x00,0x75,0x05,0xc5,0xfe,0x24,0x00, // 17072
0xfb,0xff,0xe6,0x00,0x9d,0x01,0xf6,0xfe, 0xbd,0xff,0x24,0x00,0x7a,0x05,0xcc,0xff, // 17088
0xac,0xff,0x94,0xff,0x98,0x04,0x8c,0x00, 0x8f,0xff,0x5b,0x00,0x33,0xfe,0x1b,0x00, // 17104
0xa4,0x06,0xc3,0x00,0x79,0xff,0xd6,0xff, 0x13,0x02,0x60,0x02,0x9a,0x00,0xb4,0xff, // 17120
0xf2,0xfc,0xb1,0x01,0xf1,0xff,0x5c,0xfd, 0x51,0xfd,0xb9,0xf9,0x0f,0xff,0x32,0x01, // 17136
0xe1,0x00,0xfd,0x01,0x14,0xff,0x21,0x02, 0x2a,0xfe,0xdd,0x04,0xae,0xfe,0xe0,0x01, // 17152
0x02,0x01,0xfc,0x02,0x31,0xff,0xf9,0x03, 0x3b,0xfe,0x6d,0x02,0xb8,0x00,0x49,0x02, // 17168
0x1d,0x00,0x33,0x01,0x66,0x01,0xcf,0xfd, 0x2e,0x07,0xbf,0xfb,0x49,0xff,0x50,0x03, // 17184
0x6b,0x02,0x83,0x01,0x2c,0xff,0x8e,0x01, 0xf6,0xff,0x03,0xfd,0x66,0x02,0xdc,0xfd, // 17200
0xc6,0xfd,0xc9,0xff,0xf2,0x01,0x5a,0xfa, 0xa9,0xfd,0xfb,0xfb,0x60,0xff,0xc6,0xfd, // 17216
0x62,0xfd,0x0a,0x02,0xe6,0xfe,0xd6,0x03, 0x35,0x01,0x6f,0x02,0xd5,0xff,0xa9,0xfd, // 17232
0xc6,0xfc,0xb0,0xfe,0x3b,0x03,0x3c,0xff, 0x1a,0x01,0xb1,0xfd,0x64,0x02,0x71,0x02, // 17248
0xb5,0xfb,0x6e,0xfe,0xff,0x00,0x9e,0xff, 0x2e,0xfd,0xa5,0xfe,0xff,0x01,0x32,0x02, // 17264
0x7c,0xfe,0xcd,0x02,0x31,0xfe,0xc5,0xfc, 0x05,0x00,0x11,0x00,0xc9,0x01,0x22,0xfd, // 17280
0x79,0xfd,0xf0,0xfe,0x0b,0xfe,0xa2,0xfe, 0x4b,0xfd,0xf9,0xff,0xb8,0xfe,0xa7,0x01, // 17296
0x89,0xfe,0x52,0xff,0xf1,0xff,0x90,0x01, 0x23,0x00,0x39,0xfd,0x4a,0x02,0x2a,0x00, // 17312
0x94,0x01,0xb6,0xfb,0xcb,0xfd,0x3c,0x02, 0xd3,0x03,0x5e,0x00,0x6e,0xfd,0xa3,0xff, // 17328
0x71,0x01,0xdf,0xfd,0x66,0xfd,0x28,0xfd, 0x92,0x00,0xff,0x01,0xa6,0xfd,0x86,0xfd, // 17344
0xc8,0x00,0xc4,0x01,0xbe,0x01,0x15,0x01, 0xc3,0x00,0x57,0xff,0x48,0xfe,0x1e,0x00, // 17360
0x9a,0x00,0x08,0xfd,0x45,0x02,0xc6,0xfd, 0x60,0x00,0x81,0x01,0xcc,0xfb,0xf3,0xff, // 17376
0x7f,0x01,0x60,0xfe,0xff,0x01,0x9f,0xfc, 0x91,0x02,0x33,0xff,0xbc,0x01,0x42,0xfe, // 17392
0xc7,0xff,0x3a,0x00,0xd0,0xff,0x5c,0xff, 0x28,0x00,0x49,0xfd,0xa4,0xff,0x84,0x06, // 17408
0x1c,0x01,0x82,0xff,0x73,0x00,0x8d,0x02, 0xbe,0xec,0x6b,0x03,0x57,0x03,0xc6,0xfa, // 17424
0x51,0xfc,0x96,0x00,0xf8,0xff,0xa2,0x03, 0xda,0x00,0xe6,0xfe,0xfe,0xff,0x3f,0xfd, // 17440
0x05,0x02,0x16,0xf2,0xc8,0xf6,0x48,0x00, 0x22,0x01,0xc5,0xff,0x82,0x02,0x6a,0x01, // 17456
0xe4,0xfc,0x2a,0x00,0x2d,0x00,0x2e,0xff, 0xfc,0xff,0x68,0xfe,0x27,0x01,0x50,0x03, // 17472
0x63,0x07,0xb4,0x03,0x7f,0x01,0xc4,0x05, 0xf6,0x00,0x6e,0x01,0xeb,0xfe,0x21,0xff, // 17488
0xb6,0xfc,0xf3,0xfe,0xaf,0xfe,0x5f,0x01, 0xbf,0xff,0x71,0x01,0x12,0xfe,0xcb,0xff, // 17504
0x5d,0x00,0x84,0x01,0x9e,0xfe,0xb5,0xff, 0x98,0xff,0xab,0xfe,0x46,0x01,0x54,0xfe, // 17520
0xf8,0x02,0xbb,0xfe,0x4d,0x02,0xca,0x00, 0x65,0xfe,0x45,0x00,0xea,0xff,0x3e,0xfd, // 17536
0x4d,0xfe,0xc4,0xfd,0x3d,0xf6,0x33,0x03, 0xca,0x01,0xa2,0x01,0x08,0xfe,0x20,0xff, // 17552
0xea,0xff,0x61,0xfb,0x80,0x02,0x7b,0x01, 0x42,0x00,0x91,0xfc,0x8b,0xfe,0x9a,0x0e, // 17568
0xef,0x02,0x51,0xff,0xe6,0xfc,0x78,0xff, 0xe0,0xfd,0xc0,0x07,0xd8,0xff,0x22,0x00, // 17584
0x6a,0xff,0x2b,0xff,0x5f,0xfb,0xe3,0xfa, 0x1e,0x01,0x87,0xfe,0xe4,0xff,0xc3,0xfa, // 17600
0x5c,0xff,0xe5,0x01,0xee,0xfd,0x2f,0x00, 0xcb,0xfd,0x4b,0xfb,0x13,0xfd,0xce,0xfc, // 17616
0x58,0xff,0x4a,0xfe,0x1e,0x01,0x58,0x00, 0x33,0x02,0xc6,0xfa,0x0d,0x01,0x6b,0x01, // 17632
0x17,0xff,0x5d,0xff,0x88,0x00,0xda,0xfe, 0xb4,0xff,0x94,0x03,0x94,0xfa,0xcd,0xff, // 17648
0x32,0x01,0xf1,0x00,0x14,0xff,0x9a,0x02, 0x69,0xff,0x8b,0xfd,0xdf,0xff,0x01,0xff, // 17664
